<unk>	0
<s>	0
</s>	0
<uk>	0
▁t	-0
he	-1
▁a	-2
▁s	-3
in	-4
▁.	-5
▁w	-6
▁the	-7
▁,	-8
re	-9
ou	-10
▁i	-11
▁h	-12
▁b	-13
ed	-14
▁'	-15
▁o	-16
▁m	-17
nd	-18
▁he	-19
▁c	-20
ing	-21
▁f	-22
er	-23
▁to	-24
at	-25
▁d	-26
▁n	-27
▁l	-28
en	-29
▁th	-30
is	-31
▁`	-32
▁and	-33
as	-34
ll	-35
▁p	-36
▁``	-37
▁''	-38
on	-39
an	-40
or	-41
ar	-42
▁g	-43
es	-44
▁of	-45
▁in	-46
it	-47
▁y	-48
▁ha	-49
om	-50
▁you	-51
▁e	-52
ow	-53
▁be	-54
id	-55
▁was	-56
▁her	-57
▁it	-58
ld	-59
le	-60
ot	-61
▁she	-62
ac	-63
gh	-64
ve	-65
▁on	-66
▁st	-67
st	-68
ly	-69
et	-70
▁his	-71
▁that	-72
im	-73
ay	-74
▁re	-75
▁u	-76
ic	-77
▁r	-78
▁we	-79
▁wh	-80
ut	-81
▁k	-82
▁as	-83
ver	-84
se	-85
ad	-86
al	-87
out	-88
▁?	-89
oo	-90
ght	-91
ould	-92
▁me	-93
▁for	-94
ith	-95
▁my	-96
▁with	-97
ir	-98
ent	-99
▁do	-100
▁an	-101
▁j	-102
▁had	-103
ke	-104
▁at	-105
▁sa	-106
▁li	-107
ur	-108
ion	-109
▁sh	-110
▁but	-111
▁fr	-112
all	-113
▁him	-114
her	-115
▁se	-116
am	-117
▁not	-118
ked	-119
red	-120
ight	-121
pp	-122
▁ne	-123
ro	-124
ain	-125
▁so	-126
ill	-127
ce	-128
ch	-129
ack	-130
ter	-131
il	-132
ore	-133
▁kn	-134
ant	-135
el	-136
▁out	-137
▁what	-138
▁is	-139
▁they	-140
▁said	-141
▁up	-142
rou	-143
▁have	-144
ri	-145
ome	-146
ust	-147
▁whe	-148
hing	-149
▁ch	-150
ard	-151
▁no	-152
▁from	-153
▁this	-154
▁su	-155
▁ab	-156
▁did	-157
ct	-158
ra	-159
▁le	-160
▁al	-161
▁go	-162
ie	-163
▁all	-164
one	-165
▁could	-166
▁de	-167
king	-168
us	-169
ind	-170
▁would	-171
▁int	-172
▁were	-173
▁loo	-174
▁v	-175
un	-176
hed	-177
▁back	-178
ge	-179
ess	-180
▁fe	-181
▁if	-182
art	-183
▁there	-184
own	-185
▁one	-186
▁cl	-187
▁like	-188
ood	-189
qu	-190
▁con	-191
▁sp	-192
ul	-193
▁ex	-194
ss	-195
▁wor	-196
and	-197
ast	-198
ide	-199
ab	-200
▁into	-201
▁just	-202
▁ag	-203
▁when	-204
ry	-205
our	-206
▁about	-207
▁know	-208
▁ro	-209
ace	-210
ep	-211
▁see	-212
ers	-213
op	-214
▁them	-215
▁or	-216
ake	-217
ally	-218
fe	-219
▁are	-220
▁any	-221
um	-222
way	-223
ck	-224
est	-225
▁then	-226
ong	-227
▁your	-228
▁te	-229
▁hand	-230
au	-231
very	-232
ist	-233
▁bl	-234
▁been	-235
▁over	-236
lf	-237
▁want	-238
▁un	-239
ate	-240
▁tim	-241
ven	-242
▁sm	-243
ap	-244
▁pl	-245
▁get	-246
▁ey	-247
▁some	-248
▁too	-249
▁down	-250
▁mo	-251
▁co	-252
▁lo	-253
urn	-254
▁thou	-255
are	-256
ig	-257
▁com	-258
ft	-259
ation	-260
▁man	-261
round	-262
▁again	-263
▁who	-264
ice	-265
▁bo	-266
▁time	-267
▁how	-268
▁by	-269
▁ar	-270
▁now	-271
▁-	-272
▁po	-273
ink	-274
▁qu	-275
ous	-276
▁!	-277
ag	-278
ort	-279
▁fl	-280
▁more	-281
▁us	-282
ive	-283
▁br	-284
▁eyes	-285
ine	-286
▁can	-287
▁off	-288
ther	-289
ick	-290
▁head	-291
▁their	-292
▁..	-293
▁...	-294
ull	-295
other	-296
pped	-297
ered	-298
▁tr	-299
ak	-300
▁sl	-301
ound	-302
▁than	-303
os	-304
self	-305
ved	-306
▁af	-307
▁sc	-308
▁will	-309
▁tw	-310
ame	-311
▁en	-312
fore	-313
▁even	-314
itt	-315
led	-316
ile	-317
▁before	-318
▁way	-319
th	-320
ire	-321
dd	-322
▁every	-323
▁other	-324
ure	-325
reat	-326
▁around	-327
ass	-328
▁gr	-329
▁pro	-330
▁here	-331
▁going	-332
ving	-333
nder	-334
▁pre	-335
▁som	-336
▁only	-337
ade	-338
▁turn	-339
▁somet	-340
▁looked	-341
if	-342
▁say	-343
rough	-344
▁think	-345
▁right	-346
ol	-347
▁through	-348
mp	-349
▁need	-350
▁thought	-351
ward	-352
ect	-353
nt	-354
ose	-355
▁bec	-356
▁gl	-357
▁after	-358
ite	-359
ip	-360
▁away	-361
▁should	-362
▁pr	-363
act	-364
▁thing	-365
▁let	-366
thing	-367
▁still	-368
ars	-369
▁look	-370
ity	-371
▁am	-372
▁door	-373
▁something	-374
▁ye	-375
▁kne	-376
▁exp	-377
▁asked	-378
▁long	-379
▁pe	-380
▁sw	-381
▁mu	-382
ment	-383
ened	-384
▁gu	-385
me	-386
iss	-387
▁face	-388
▁wat	-389
ble	-390
ach	-391
ared	-392
▁good	-393
ies	-394
▁ac	-395
iz	-396
▁wa	-397
▁never	-398
able	-399
▁op	-400
ang	-401
▁where	-402
▁well	-403
med	-404
ting	-405
ance	-406
wn	-407
ree	-408
▁fo	-409
▁feel	-410
ark	-411
ated	-412
ause	-413
▁bet	-414
dy	-415
ted	-416
▁ca	-417
▁two	-418
▁our	-419
ue	-420
▁made	-421
▁much	-422
ich	-423
▁fir	-424
▁che	-425
▁why	-426
ched	-427
▁room	-428
ather	-429
ious	-430
ond	-431
▁got	-432
▁dis	-433
▁knew	-434
▁mom	-435
▁ke	-436
▁day	-437
ady	-438
▁car	-439
ning	-440
te	-441
▁arm	-442
age	-443
ave	-444
ough	-445
▁tell	-446
aking	-447
side	-448
ittle	-449
▁under	-450
▁little	-451
elt	-452
ried	-453
▁make	-454
▁come	-455
▁wal	-456
ru	-457
ath	-458
be	-459
▁cont	-460
▁because	-461
▁happ	-462
▁call	-463
ber	-464
▁first	-465
ff	-466
ress	-467
gg	-468
▁take	-469
ase	-470
▁jo	-471
ied	-472
air	-473
▁felt	-474
▁hel	-475
▁comp	-476
▁may	-477
▁;	-478
▁ho	-479
oice	-480
▁sure	-481
▁took	-482
▁turned	-483
▁app	-484
▁start	-485
de	-486
ves	-487
ild	-488
▁tal	-489
ah	-490
ook	-491
▁mar	-492
▁cr	-493
ily	-494
▁wanted	-495
ty	-496
▁el	-497
▁des	-498
▁hands	-499
ence	-500
▁per	-501
▁pull	-502
▁bot	-503
▁really	-504
▁spe	-505
▁night	-506
ia	-507
▁sur	-508
▁try	-509
▁fin	-510
▁help	-511
▁very	-512
ople	-513
ren	-514
ling	-515
ans	-516
▁bel	-517
▁people	-518
▁sk	-519
▁wo	-520
▁has	-521
▁voice	-522
▁real	-523
▁ad	-524
▁sec	-525
▁left	-526
ced	-527
▁came	-528
▁part	-529
▁life	-530
ds	-531
▁cou	-532
▁another	-533
▁which	-534
▁rep	-535
ks	-536
▁beh	-537
owed	-538
▁few	-539
▁--	-540
▁res	-541
▁while	-542
▁ste	-543
ise	-544
▁find	-545
▁against	-546
▁wait	-547
▁last	-548
▁moment	-549
ful	-550
▁told	-551
ish	-552
▁bu	-553
av	-554
▁new	-555
▁wom	-556
▁anything	-557
ions	-558
▁put	-559
▁toward	-560
▁own	-561
ens	-562
▁side	-563
ross	-564
ps	-565
ned	-566
▁hard	-567
▁yes	-568
▁being	-569
▁gra	-570
bb	-571
▁beg	-572
▁str	-573
▁nothing	-574
een	-575
get	-576
mo	-577
▁keep	-578
▁lau	-579
▁light	-580
▁sn	-581
ouse	-582
▁war	-583
▁behind	-584
▁mat	-585
xt	-586
▁stu	-587
▁ph	-588
▁enough	-589
▁unt	-590
▁went	-591
ont	-592
▁body	-593
les	-594
az	-595
▁saw	-596
▁em	-597
▁mind	-598
▁might	-599
hes	-600
ell	-601
▁breat	-602
▁dark	-603
pt	-604
iled	-605
▁wr	-606
ord	-607
▁clos	-608
ways	-609
▁though	-610
▁does	-611
▁things	-612
▁until	-613
aring	-614
ince	-615
▁once	-616
▁ent	-617
▁old	-618
▁sound	-619
▁cle	-620
ness	-621
▁dr	-622
▁those	-623
igh	-624
▁bed	-625
▁love	-626
▁imp	-627
▁set	-628
ci	-629
▁im	-630
▁open	-631
▁ever	-632
▁most	-633
ream	-634
orm	-635
▁end	-636
iend	-637
▁care	-638
dded	-639
▁act	-640
▁friend	-641
▁gir	-642
ching	-643
ne	-644
▁sat	-645
▁dec	-646
▁looking	-647
▁next	-648
▁att	-649
▁found	-650
int	-651
▁maybe	-652
▁hair	-653
▁always	-654
▁sil	-655
▁place	-656
▁house	-657
ool	-658
▁both	-659
▁min	-660
▁home	-661
▁its	-662
▁gi	-663
ons	-664
▁without	-665
ian	-666
ower	-667
amp	-668
▁father	-669
row	-670
▁:	-671
outh	-672
ner	-673
▁ple	-674
▁rel	-675
▁work	-676
▁hop	-677
▁inst	-678
▁rest	-679
uck	-680
▁front	-681
ory	-682
less	-683
per	-684
▁small	-685
ary	-686
cked	-687
▁same	-688
▁run	-689
▁*	-690
▁girl	-691
sw	-692
rew	-693
ail	-694
▁heart	-695
▁cur	-696
▁seemed	-697
▁himself	-698
▁ret	-699
▁hu	-700
▁inside	-701
ier	-702
▁everything	-703
▁fing	-704
ating	-705
▁woman	-706
tain	-707
ually	-708
ised	-709
▁someone	-710
sh	-711
ange	-712
▁wind	-713
▁mother	-714
▁each	-715
▁cour	-716
▁hold	-717
▁kill	-718
▁heard	-719
▁fam	-720
▁rem	-721
▁answ	-722
▁quick	-723
▁cor	-724
▁ser	-725
▁far	-726
▁rec	-727
▁pulled	-728
▁stand	-729
▁trying	-730
▁oh	-731
▁better	-732
▁stood	-733
▁flo	-734
▁since	-735
▁sto	-736
▁ang	-737
▁pa	-738
ys	-739
ret	-740
▁pass	-741
▁must	-742
▁dra	-743
ng	-744
▁men	-745
used	-746
ached	-747
▁mouth	-748
▁years	-749
aught	-750
ready	-751
▁mean	-752
▁sho	-753
▁bit	-754
▁already	-755
▁foll	-756
ever	-757
most	-758
▁ok	-759
ung	-760
▁arms	-761
▁walked	-762
so	-763
▁belie	-764
mem	-765
▁across	-766
▁deep	-767
aw	-768
ween	-769
ump	-770
▁ev	-771
▁stay	-772
ably	-773
▁remem	-774
▁between	-775
▁give	-776
▁blood	-777
arly	-778
▁smile	-779
▁bre	-780
▁else	-781
▁almost	-782
▁started	-783
▁second	-784
ible	-785
▁world	-786
▁sle	-787
pping	-788
iv	-789
▁tra	-790
▁air	-791
▁wall	-792
▁stop	-793
▁pain	-794
▁gave	-795
▁hur	-796
lo	-797
▁tried	-798
▁black	-799
▁sig	-800
ank	-801
ict	-802
▁mor	-803
▁ass	-804
▁dri	-805
▁many	-806
▁ob	-807
▁three	-808
ors	-809
▁done	-810
▁kind	-811
▁ed	-812
▁mr	-813
▁nodded	-814
▁sim	-815
gether	-816
▁dif	-817
ized	-818
ully	-819
▁myself	-820
▁z	-821
▁breath	-822
ater	-823
▁kiss	-824
▁words	-825
▁hum	-826
▁herself	-827
▁quest	-828
ix	-829
pr	-830
▁smiled	-831
og	-832
▁these	-833
▁slow	-834
▁seen	-835
▁doing	-836
▁close	-837
ings	-838
ason	-839
▁underst	-840
▁dro	-841
▁minut	-842
▁held	-843
▁miss	-844
▁met	-845
▁water	-846
ane	-847
▁together	-848
▁feet	-849
ushed	-850
▁supp	-851
anc	-852
ense	-853
▁mon	-854
to	-855
▁ra	-856
ured	-857
day	-858
▁okay	-859
▁pers	-860
▁great	-861
ained	-862
umb	-863
fect	-864
▁began	-865
▁yet	-866
ently	-867
rent	-868
▁leave	-869
▁lot	-870
iet	-871
▁ma	-872
ash	-873
ud	-874
▁gre	-875
ished	-876
▁tou	-877
▁child	-878
▁big	-879
▁acc	-880
ib	-881
vel	-882
▁char	-883
▁move	-884
owing	-885
▁sor	-886
ple	-887
▁table	-888
▁floor	-889
▁gone	-890
inking	-891
▁eas	-892
▁dist	-893
aced	-894
ms	-895
ention	-896
▁hear	-897
▁past	-898
▁soon	-899
ult	-900
ering	-901
ither	-902
icked	-903
▁aw	-904
▁needed	-905
▁inc	-906
▁also	-907
ately	-908
▁talk	-909
▁contin	-910
▁play	-911
dden	-912
pe	-913
▁step	-914
irt	-915
gged	-916
▁conf	-917
▁such	-918
▁finally	-919
▁along	-920
ub	-921
▁course	-922
▁bar	-923
ows	-924
here	-925
▁hour	-926
▁return	-927
bo	-928
▁name	-929
▁sudden	-930
▁je	-931
ical	-932
▁swe	-933
ying	-934
▁shook	-935
▁prob	-936
▁whis	-937
rie	-938
▁bus	-939
vers	-940
▁leg	-941
no	-942
ph	-943
▁lips	-944
ined	-945
▁fore	-946
▁ide	-947
▁called	-948
att	-949
▁inv	-950
▁bad	-951
▁poss	-952
▁lar	-953
ift	-954
▁family	-955
▁tre	-956
ept	-957
rb	-958
▁least	-959
▁getting	-960
▁best	-961
ction	-962
▁happened	-963
akes	-964
▁fall	-965
▁moved	-966
▁ter	-967
▁coming	-968
ected	-969
▁half	-970
▁reached	-971
▁resp	-972
ek	-973
▁believe	-974
▁stopped	-975
▁probably	-976
▁comm	-977
▁person	-978
▁soft	-979
der	-980
▁expl	-981
ided	-982
▁pat	-983
▁ben	-984
▁es	-985
▁opened	-986
▁surpr	-987
▁quickly	-988
up	-989
▁everyone	-990
ition	-991
▁ran	-992
▁sorry	-993
▁meet	-994
▁bro	-995
▁later	-996
▁ground	-997
▁hell	-998
▁red	-999
▁dire	-1000
ired	-1001
▁squ	-1002
ny	-1003
▁repl	-1004
ipped	-1005
▁list	-1006
▁hor	-1007
▁high	-1008
▁understand	-1009
▁stra	-1010
sp	-1011
▁dead	-1012
▁remember	-1013
▁feeling	-1014
ten	-1015
cc	-1016
na	-1017
▁fingers	-1018
▁plan	-1019
▁used	-1020
▁anyone	-1021
▁chest	-1022
▁dam	-1023
fully	-1024
▁lu	-1025
▁lean	-1026
▁says	-1027
▁diffe	-1028
▁ear	-1029
ued	-1030
▁inter	-1031
▁morning	-1032
▁eye	-1033
arent	-1034
▁fire	-1035
▁read	-1036
ertain	-1037
idd	-1038
ister	-1039
▁young	-1040
ged	-1041
▁sit	-1042
bbed	-1043
ush	-1044
▁ask	-1045
ual	-1046
aps	-1047
▁able	-1048
▁sleep	-1049
▁phone	-1050
▁idea	-1051
itting	-1052
che	-1053
▁boy	-1054
▁brother	-1055
▁making	-1056
▁power	-1057
ening	-1058
ial	-1059
cept	-1060
▁forward	-1061
▁cra	-1062
▁conc	-1063
▁comple	-1064
▁appe	-1065
▁bes	-1066
▁yeah	-1067
▁lea	-1068
iously	-1069
ount	-1070
▁taking	-1071
▁quiet	-1072
▁point	-1073
▁col	-1074
▁vis	-1075
rest	-1076
▁jack	-1077
▁days	-1078
head	-1079
▁chap	-1080
oke	-1081
▁gaz	-1082
aut	-1083
ove	-1084
▁white	-1085
em	-1086
▁ap	-1087
▁matter	-1088
ton	-1089
ents	-1090
▁kept	-1091
▁fight	-1092
lled	-1093
▁use	-1094
▁exc	-1095
▁slowly	-1096
▁inf	-1097
▁fact	-1098
aken	-1099
▁reg	-1100
▁alone	-1101
▁skin	-1102
▁dad	-1103
anced	-1104
▁disc	-1105
▁mag	-1106
▁sun	-1107
▁god	-1108
iness	-1109
▁prot	-1110
uth	-1111
room	-1112
▁coll	-1113
▁tight	-1114
▁inte	-1115
▁press	-1116
ins	-1117
fort	-1118
ize	-1119
▁ready	-1120
▁top	-1121
▁fell	-1122
▁cap	-1123
▁ru	-1124
▁watched	-1125
▁emp	-1126
▁stared	-1127
▁shoulder	-1128
▁cons	-1129
▁cat	-1130
▁del	-1131
▁onto	-1132
▁par	-1133
▁full	-1134
▁chapter	-1135
▁ref	-1136
▁sch	-1137
▁suddenly	-1138
▁pol	-1139
app	-1140
▁pres	-1141
▁wrong	-1142
▁question	-1143
▁dress	-1144
▁outside	-1145
▁ele	-1146
▁mem	-1147
▁thinking	-1148
▁dem	-1149
iver	-1150
▁hurt	-1151
▁wonder	-1152
▁please	-1153
▁having	-1154
▁book	-1155
▁closed	-1156
▁det	-1157
▁minutes	-1158
▁hope	-1159
ames	-1160
▁hot	-1161
ghed	-1162
airs	-1163
▁beaut	-1164
▁dou	-1165
ically	-1166
▁land	-1167
ike	-1168
ife	-1169
▁hall	-1170
▁either	-1171
ma	-1172
▁talking	-1173
▁tri	-1174
▁neck	-1175
▁fill	-1176
ead	-1177
where	-1178
▁cut	-1179
ased	-1180
▁guess	-1181
▁different	-1182
▁cold	-1183
▁pur	-1184
ets	-1185
▁fine	-1186
▁build	-1187
▁cal	-1188
▁unc	-1189
ations	-1190
▁fig	-1191
▁waiting	-1192
by	-1193
▁short	-1194
▁stre	-1195
▁reason	-1196
ger	-1197
man	-1198
▁whole	-1199
▁sy	-1200
▁certain	-1201
▁fur	-1202
▁large	-1203
oney	-1204
mer	-1205
▁lift	-1206
ited	-1207
inted	-1208
▁standing	-1209
▁lost	-1210
▁actually	-1211
▁others	-1212
▁thank	-1213
▁caught	-1214
ped	-1215
▁laughed	-1216
▁prom	-1217
▁lou	-1218
▁har	-1219
▁four	-1220
night	-1221
▁laugh	-1222
▁low	-1223
▁word	-1224
▁answer	-1225
▁friends	-1226
▁hit	-1227
▁near	-1228
▁taken	-1229
▁complete	-1230
▁guard	-1231
▁sever	-1232
▁whisp	-1233
ures	-1234
▁dream	-1235
eth	-1236
▁instead	-1237
▁times	-1238
▁pret	-1239
▁exact	-1240
rought	-1241
▁er	-1242
▁imag	-1243
▁school	-1244
uring	-1245
▁break	-1246
▁ago	-1247
▁glass	-1248
▁guy	-1249
io	-1250
▁mus	-1251
▁thro	-1252
▁gen	-1253
▁window	-1254
▁fre	-1255
▁walk	-1256
ides	-1257
▁continued	-1258
br	-1259
▁free	-1260
▁quite	-1261
▁mur	-1262
▁blue	-1263
▁stepped	-1264
ax	-1265
▁brought	-1266
als	-1267
▁strong	-1268
▁bring	-1269
▁death	-1270
osed	-1271
▁warm	-1272
▁king	-1273
iling	-1274
▁replied	-1275
▁count	-1276
▁several	-1277
▁clot	-1278
▁ale	-1279
▁sister	-1280
▁bur	-1281
▁human	-1282
▁show	-1283
▁sign	-1284
▁pretty	-1285
▁tom	-1286
▁gaze	-1287
iding	-1288
ik	-1289
rol	-1290
▁sent	-1291
▁ins	-1292
▁followed	-1293
▁**	-1294
▁less	-1295
▁disapp	-1296
▁foot	-1297
▁burn	-1298
▁def	-1299
▁grin	-1300
ken	-1301
▁realized	-1302
aster	-1303
▁glanced	-1304
▁perfect	-1305
▁lead	-1306
▁mess	-1307
▁meant	-1308
▁fun	-1309
anger	-1310
iced	-1311
yl	-1312
▁lay	-1313
▁adm	-1314
enty	-1315
▁ind	-1316
▁scream	-1317
▁wood	-1318
▁mine	-1319
anged	-1320
ina	-1321
▁kit	-1322
▁kid	-1323
▁appro	-1324
▁shot	-1325
▁straight	-1326
▁bare	-1327
▁chair	-1328
iful	-1329
eks	-1330
▁whispered	-1331
ield	-1332
▁whatever	-1333
ates	-1334
▁seat	-1335
lly	-1336
ming	-1337
▁exactly	-1338
cking	-1339
nded	-1340
▁sitting	-1341
▁sense	-1342
▁chr	-1343
▁looks	-1344
▁sub	-1345
▁fear	-1346
haps	-1347
cy	-1348
▁happy	-1349
acked	-1350
▁holding	-1351
▁win	-1352
▁longer	-1353
▁perhaps	-1354
aged	-1355
orn	-1356
▁throat	-1357
unt	-1358
▁mad	-1359
▁chance	-1360
▁closer	-1361
▁town	-1362
▁running	-1363
nding	-1364
▁hours	-1365
▁leaned	-1366
▁watching	-1367
▁interest	-1368
▁bab	-1369
▁true	-1370
▁vamp	-1371
▁job	-1372
▁entire	-1373
▁attention	-1374
▁decided	-1375
ters	-1376
▁stru	-1377
ject	-1378
▁ce	-1379
ips	-1380
▁legs	-1381
▁shut	-1382
▁lear	-1383
▁fa	-1384
▁cent	-1385
zy	-1386
otion	-1387
▁grabbed	-1388
▁today	-1389
ces	-1390
ression	-1391
▁speak	-1392
jo	-1393
ape	-1394
chen	-1395
ock	-1396
▁beautiful	-1397
▁cry	-1398
els	-1399
▁dan	-1400
▁watch	-1401
▁creat	-1402
▁eng	-1403
▁nice	-1404
▁beside	-1405
▁cross	-1406
▁proble	-1407
ird	-1408
ison	-1409
▁bott	-1410
aces	-1411
▁safe	-1412
▁change	-1413
▁din	-1414
▁bra	-1415
▁five	-1416
▁slight	-1417
▁ir	-1418
▁gun	-1419
▁shru	-1420
▁touch	-1421
▁year	-1422
apped	-1423
▁pap	-1424
▁office	-1425
▁pushed	-1426
ract	-1427
▁ve	-1428
▁saying	-1429
cess	-1430
▁parent	-1431
▁month	-1432
irc	-1433
▁city	-1434
▁grand	-1435
land	-1436
▁money	-1437
▁towards	-1438
ime	-1439
read	-1440
▁given	-1441
▁deal	-1442
▁trust	-1443
▁couple	-1444
yed	-1445
sel	-1446
▁ten	-1447
▁heav	-1448
▁thr	-1449
ants	-1450
▁vampire	-1451
▁arri	-1452
▁jump	-1453
▁hung	-1454
▁live	-1455
▁control	-1456
tered	-1457
arth	-1458
▁kitchen	-1459
▁la	-1460
▁sam	-1461
▁pri	-1462
▁fast	-1463
▁living	-1464
ident	-1465
antly	-1466
the	-1467
its	-1468
▁leaving	-1469
▁moving	-1470
▁case	-1471
▁line	-1472
▁above	-1473
isted	-1474
▁road	-1475
ze	-1476
▁sar	-1477
▁tears	-1478
▁known	-1479
▁shad	-1480
ster	-1481
▁bag	-1482
ility	-1483
▁esc	-1484
bed	-1485
▁shoulders	-1486
▁mir	-1487
▁apart	-1488
▁spoke	-1489
▁women	-1490
▁son	-1491
▁sens	-1492
iew	-1493
▁six	-1494
▁sort	-1495
oth	-1496
▁sing	-1497
▁pie	-1498
▁tonight	-1499
▁jul	-1500
▁dev	-1501
▁direct	-1502
ffe	-1503
▁add	-1504
▁passed	-1505
▁ig	-1506
▁business	-1507
▁rock	-1508
▁stom	-1509
▁circ	-1510
▁temp	-1511
▁av	-1512
pl	-1513
ines	-1514
▁bene	-1515
ann	-1516
▁finger	-1517
▁begin	-1518
iff	-1519
ches	-1520
ising	-1521
▁obv	-1522
▁protect	-1523
ply	-1524
▁parents	-1525
▁truth	-1526
▁rose	-1527
▁dropped	-1528
▁food	-1529
▁cla	-1530
gan	-1531
▁doub	-1532
▁clear	-1533
ley	-1534
▁filled	-1535
▁loved	-1536
▁du	-1537
▁silence	-1538
▁wra	-1539
▁hon	-1540
medi	-1541
▁within	-1542
▁forg	-1543
ony	-1544
▁mist	-1545
▁trou	-1546
▁exper	-1547
▁immedi	-1548
▁rather	-1549
▁late	-1550
▁smell	-1551
▁completely	-1552
▁anyway	-1553
▁cre	-1554
ief	-1555
gth	-1556
▁pal	-1557
▁worry	-1558
▁building	-1559
▁joh	-1560
unch	-1561
▁nat	-1562
▁sighed	-1563
rrb	-1564
body	-1565
▁green	-1566
▁ge	-1567
oun	-1568
▁street	-1569
▁walking	-1570
ror	-1571
ots	-1572
▁sky	-1573
▁ty	-1574
ashed	-1575
▁noticed	-1576
▁raised	-1577
▁children	-1578
▁working	-1579
▁tu	-1580
aining	-1581
son	-1582
▁sou	-1583
▁nearly	-1584
▁secret	-1585
▁picked	-1586
▁corner	-1587
▁crow	-1588
▁mil	-1589
imes	-1590
▁sear	-1591
lrb	-1592
my	-1593
▁bright	-1594
raid	-1595
▁upon	-1596
ha	-1597
▁pos	-1598
▁frown	-1599
▁enjo	-1600
▁atte	-1601
▁da	-1602
▁pay	-1603
erv	-1604
uss	-1605
erg	-1606
▁returned	-1607
▁grou	-1608
▁wond	-1609
▁thoughts	-1610
▁john	-1611
light	-1612
▁possible	-1613
▁convers	-1614
ience	-1615
acing	-1616
▁afraid	-1617
▁norm	-1618
hel	-1619
▁staring	-1620
▁ext	-1621
▁tor	-1622
▁gar	-1623
vered	-1624
▁seeing	-1625
▁import	-1626
iny	-1627
▁gas	-1628
▁opp	-1629
▁shirt	-1630
ts	-1631
▁alex	-1632
▁mark	-1633
▁gri	-1634
▁lifted	-1635
ular	-1636
▁stomach	-1637
▁happen	-1638
▁knowing	-1639
▁die	-1640
▁adv	-1641
▁answered	-1642
any	-1643
▁waited	-1644
▁killed	-1645
▁strange	-1646
▁sweet	-1647
▁danger	-1648
▁dest	-1649
▁seem	-1650
▁ann	-1651
ho	-1652
▁drink	-1653
▁shout	-1654
▁sir	-1655
▁week	-1656
▁wife	-1657
▁supposed	-1658
cial	-1659
▁pict	-1660
▁become	-1661
▁expression	-1662
▁occ	-1663
▁expect	-1664
▁edge	-1665
▁form	-1666
ndred	-1667
▁conn	-1668
▁baby	-1669
ee	-1670
ones	-1671
▁story	-1672
▁stud	-1673
ute	-1674
▁yourself	-1675
▁dep	-1676
▁twenty	-1677
though	-1678
▁however	-1679
▁turning	-1680
ories	-1681
ains	-1682
ient	-1683
▁coun	-1684
▁wondered	-1685
▁concer	-1686
ments	-1687
▁immediately	-1688
ric	-1689
▁pleas	-1690
▁sight	-1691
arr	-1692
▁comfort	-1693
▁draw	-1694
▁appeared	-1695
▁abs	-1696
▁cam	-1697
▁foc	-1698
▁easy	-1699
▁surprised	-1700
▁pet	-1701
▁eat	-1702
ator	-1703
▁class	-1704
▁hang	-1705
ign	-1706
▁worked	-1707
▁shift	-1708
▁led	-1709
▁trans	-1710
▁although	-1711
▁sex	-1712
▁desk	-1713
▁pointed	-1714
▁shar	-1715
▁num	-1716
ities	-1717
▁sol	-1718
mb	-1719
▁hundred	-1720
▁clothes	-1721
▁hun	-1722
▁clean	-1723
▁box	-1724
▁gold	-1725
▁makes	-1726
▁clim	-1727
▁earth	-1728
▁mer	-1729
▁thanks	-1730
ushing	-1731
▁mut	-1732
▁grow	-1733
▁coffe	-1734
▁damn	-1735
▁spot	-1736
▁wide	-1737
du	-1738
▁sett	-1739
selves	-1740
▁teeth	-1741
olog	-1742
iddle	-1743
▁luck	-1744
▁empty	-1745
▁beneath	-1746
▁sad	-1747
let	-1748
rief	-1749
▁loud	-1750
▁sal	-1751
▁became	-1752
▁during	-1753
▁problem	-1754
la	-1755
ought	-1756
▁except	-1757
ging	-1758
▁shrugged	-1759
▁ord	-1760
▁lady	-1761
▁stuff	-1762
▁giving	-1763
▁christ	-1764
ilt	-1765
▁figure	-1766
aled	-1767
gs	-1768
▁barely	-1769
▁telling	-1770
▁id	-1771
▁crowd	-1772
▁coffee	-1773
▁remind	-1774
itch	-1775
▁drive	-1776
▁main	-1777
aughter	-1778
more	-1779
▁loc	-1780
rence	-1781
ili	-1782
▁stone	-1783
▁changed	-1784
▁disappe	-1785
▁na	-1786
▁simply	-1787
▁pick	-1788
ists	-1789
▁terri	-1790
▁conversation	-1791
tern	-1792
▁group	-1793
ien	-1794
▁pock	-1795
ards	-1796
▁thick	-1797
▁finished	-1798
use	-1799
ider	-1800
ances	-1801
▁inform	-1802
▁gener	-1803
▁minute	-1804
lic	-1805
▁sometimes	-1806
orrow	-1807
▁gro	-1808
▁middle	-1809
▁mount	-1810
▁spr	-1811
▁susp	-1812
▁rolled	-1813
aded	-1814
▁bill	-1815
▁guys	-1816
▁stro	-1817
▁kissed	-1818
▁lord	-1819
▁girls	-1820
amed	-1821
▁attack	-1822
▁order	-1823
▁died	-1824
▁calm	-1825
▁added	-1826
▁ball	-1827
ey	-1828
umbled	-1829
▁important	-1830
▁sold	-1831
▁mrs	-1832
▁batt	-1833
▁jer	-1834
zz	-1835
band	-1836
▁pressed	-1837
bered	-1838
uff	-1839
▁earl	-1840
ara	-1841
ices	-1842
▁direction	-1843
▁fle	-1844
▁sum	-1845
▁number	-1846
ogn	-1847
bs	-1848
▁cover	-1849
▁slightly	-1850
▁hus	-1851
▁heavy	-1852
▁space	-1853
▁desp	-1854
▁ahead	-1855
▁sand	-1856
▁slid	-1857
▁spent	-1858
how	-1859
ision	-1860
▁months	-1861
oc	-1862
▁tall	-1863
▁wish	-1864
iting	-1865
▁police	-1866
▁cast	-1867
icking	-1868
▁hers	-1869
▁force	-1870
▁dinner	-1871
▁paper	-1872
ively	-1873
unk	-1874
▁area	-1875
▁none	-1876
irty	-1877
▁surprise	-1878
▁recogn	-1879
▁trees	-1880
▁pan	-1881
hered	-1882
▁steps	-1883
▁cheek	-1884
cially	-1885
▁hey	-1886
▁sounded	-1887
▁headed	-1888
▁lim	-1889
▁gray	-1890
ital	-1891
▁alive	-1892
pid	-1893
itted	-1894
▁follow	-1895
▁tomorrow	-1896
cent	-1897
▁glad	-1898
▁nick	-1899
▁questions	-1900
▁smo	-1901
▁check	-1902
▁prep	-1903
co	-1904
▁med	-1905
▁knows	-1906
▁anymore	-1907
▁daughter	-1908
ery	-1909
ask	-1910
▁stri	-1911
▁ship	-1912
▁tree	-1913
▁pack	-1914
▁fly	-1915
▁tong	-1916
▁pulling	-1917
▁quietly	-1918
▁mel	-1919
▁rele	-1920
▁trouble	-1921
ship	-1922
vin	-1923
ctor	-1924
▁vict	-1925
▁worried	-1926
ls	-1927
▁paused	-1928
▁james	-1929
▁managed	-1930
▁covered	-1931
lling	-1932
▁remembered	-1933
▁softly	-1934
▁event	-1935
ggest	-1936
▁doors	-1937
▁situ	-1938
▁wearing	-1939
▁suggest	-1940
▁somewhere	-1941
▁bath	-1942
▁weeks	-1943
▁walls	-1944
▁sounds	-1945
ler	-1946
▁silent	-1947
▁reach	-1948
▁placed	-1949
aching	-1950
ney	-1951
▁fair	-1952
▁information	-1953
gr	-1954
pecially	-1955
▁forget	-1956
ael	-1957
▁gently	-1958
▁den	-1959
▁doubt	-1960
▁throw	-1961
▁darkness	-1962
▁stairs	-1963
reed	-1964
▁liked	-1965
▁worse	-1966
▁weap	-1967
cing	-1968
▁cell	-1969
▁bey	-1970
▁offe	-1971
▁hes	-1972
▁somehow	-1973
▁val	-1974
▁view	-1975
▁ble	-1976
▁max	-1977
▁news	-1978
▁round	-1979
fic	-1980
▁meeting	-1981
▁expected	-1982
▁beyond	-1983
▁cool	-1984
▁seems	-1985
▁nose	-1986
▁distance	-1987
▁single	-1988
▁hesit	-1989
▁path	-1990
▁bedroom	-1991
▁pract	-1992
▁especially	-1993
▁anger	-1994
▁drew	-1995
▁offic	-1996
▁tongue	-1997
▁tone	-1998
wor	-1999
▁threat	-2000
pted	-2001
▁stupid	-2002
▁carry	-2003
▁spir	-2004
▁often	-2005
▁weak	-2006
▁touched	-2007
ene	-2008
▁husband	-2009
ale	-2010
▁broke	-2011
▁state	-2012
▁ring	-2013
oss	-2014
▁mention	-2015
▁ign	-2016
▁law	-2017
▁deser	-2018
▁angry	-2019
▁command	-2020
osp	-2021
▁wild	-2022
ination	-2023
▁respond	-2024
▁tast	-2025
oring	-2026
▁tow	-2027
ibly	-2028
▁arrived	-2029
▁dar	-2030
▁surround	-2031
▁ur	-2032
▁fift	-2033
▁further	-2034
go	-2035
▁ash	-2036
itely	-2037
▁ones	-2038
▁early	-2039
▁huge	-2040
▁forced	-2041
sing	-2042
▁van	-2043
▁lit	-2044
▁brown	-2045
ages	-2046
ails	-2047
ining	-2048
ific	-2049
▁brief	-2050
▁seconds	-2051
▁cop	-2052
com	-2053
▁art	-2054
▁lie	-2055
▁shaking	-2056
▁evening	-2057
▁serv	-2058
▁broken	-2059
▁demand	-2060
▁game	-2061
▁bir	-2062
▁dav	-2063
▁beat	-2064
using	-2065
iel	-2066
▁tired	-2067
sed	-2068
▁position	-2069
▁agreed	-2070
▁musc	-2071
ously	-2072
▁earlier	-2073
▁knees	-2074
▁fav	-2075
▁heat	-2076
ica	-2077
▁jake	-2078
ior	-2079
▁ver	-2080
▁sword	-2081
▁threw	-2082
▁cass	-2083
▁fut	-2084
▁gent	-2085
▁stren	-2086
▁listen	-2087
▁prof	-2088
▁tiny	-2089
▁drag	-2090
▁rid	-2091
▁strugg	-2092
▁jen	-2093
▁eight	-2094
ding	-2095
orted	-2096
▁eff	-2097
oof	-2098
▁stret	-2099
▁wants	-2100
old	-2101
bbing	-2102
▁attemp	-2103
▁catch	-2104
▁nor	-2105
▁sick	-2106
▁crazy	-2107
aling	-2108
▁blank	-2109
▁ris	-2110
▁react	-2111
ues	-2112
▁angel	-2113
▁certainly	-2114
▁requ	-2115
cious	-2116
▁cab	-2117
▁const	-2118
zed	-2119
like	-2120
▁chuck	-2121
▁wound	-2122
▁pocket	-2123
▁reve	-2124
reen	-2125
▁sigh	-2126
▁lying	-2127
▁camp	-2128
▁relax	-2129
▁surv	-2130
▁spl	-2131
▁arg	-2132
▁fro	-2133
▁mich	-2134
▁forgot	-2135
▁wrapped	-2136
▁nerv	-2137
▁kno	-2138
▁self	-2139
▁serious	-2140
▁below	-2141
▁party	-2142
▁smiling	-2143
▁priv	-2144
▁ill	-2145
▁stare	-2146
▁grace	-2147
▁hide	-2148
▁choice	-2149
▁bal	-2150
▁horse	-2151
▁means	-2152
▁whether	-2153
▁eyeb	-2154
▁situation	-2155
iliar	-2156
▁rain	-2157
▁enc	-2158
▁hoping	-2159
▁partic	-2160
▁spread	-2161
▁piece	-2162
set	-2163
▁hen	-2164
idence	-2165
aped	-2166
▁hoped	-2167
▁scr	-2168
▁jumped	-2169
orth	-2170
▁suit	-2171
▁rich	-2172
▁ry	-2173
iam	-2174
▁magic	-2175
▁slam	-2176
▁charl	-2177
▁pen	-2178
▁kids	-2179
erm	-2180
▁visit	-2181
nds	-2182
▁swall	-2183
ager	-2184
▁gotten	-2185
▁explain	-2186
▁lights	-2187
cho	-2188
▁jos	-2189
▁bow	-2190
▁desper	-2191
▁themselves	-2192
▁cas	-2193
▁normal	-2194
▁company	-2195
▁strength	-2196
atter	-2197
▁comes	-2198
▁keeping	-2199
ott	-2200
▁promise	-2201
▁ell	-2202
▁frowned	-2203
▁mill	-2204
▁defin	-2205
gging	-2206
▁save	-2207
ics	-2208
▁entered	-2209
ipping	-2210
▁anim	-2211
▁bottom	-2212
▁snapped	-2213
▁remained	-2214
than	-2215
▁wel	-2216
ishing	-2217
▁carefully	-2218
▁assum	-2219
▁paul	-2220
▁lived	-2221
ats	-2222
▁energ	-2223
▁asking	-2224
▁amaz	-2225
▁obviously	-2226
▁eyebrow	-2227
sy	-2228
▁squee	-2229
▁slipped	-2230
▁remo	-2231
▁snow	-2232
▁beginning	-2233
▁boys	-2234
▁clearly	-2235
▁despite	-2236
▁incl	-2237
▁odd	-2238
▁lip	-2239
▁mis	-2240
▁truck	-2241
▁clou	-2242
imed	-2243
right	-2244
▁battle	-2245
▁sharp	-2246
▁test	-2247
▁grinned	-2248
▁using	-2249
sand	-2250
▁worth	-2251
▁rac	-2252
▁agree	-2253
▁dog	-2254
ena	-2255
▁grew	-2256
▁captain	-2257
▁diffic	-2258
▁apparent	-2259
aint	-2260
▁luc	-2261
▁cond	-2262
▁team	-2263
▁field	-2264
▁pu	-2265
▁gentle	-2266
▁toss	-2267
▁pun	-2268
▁lives	-2269
▁moon	-2270
ns	-2271
▁dressed	-2272
ude	-2273
▁mass	-2274
▁itself	-2275
▁notice	-2276
▁mid	-2277
▁rob	-2278
▁star	-2279
▁doctor	-2280
▁master	-2281
▁ears	-2282
▁soul	-2283
▁offered	-2284
▁easily	-2285
cted	-2286
▁playing	-2287
▁ice	-2288
fer	-2289
▁future	-2290
▁thousand	-2291
▁nic	-2292
▁und	-2293
▁pleasure	-2294
▁music	-2295
▁tun	-2296
ived	-2297
▁honest	-2298
ety	-2299
▁invol	-2300
▁sarah	-2301
▁cup	-2302
▁showed	-2303
pper	-2304
▁married	-2305
iles	-2306
▁ant	-2307
▁locked	-2308
▁imagine	-2309
▁contact	-2310
▁allowed	-2311
▁ol	-2312
ative	-2313
▁repe	-2314
▁picture	-2315
▁helped	-2316
▁wip	-2317
ote	-2318
▁river	-2319
▁lock	-2320
▁avo	-2321
▁mary	-2322
▁wed	-2323
▁thin	-2324
▁center	-2325
▁energy	-2326
▁hosp	-2327
▁memory	-2328
▁gab	-2329
▁silver	-2330
▁crossed	-2331
▁realize	-2332
▁older	-2333
▁afterno	-2334
▁letting	-2335
▁among	-2336
ressed	-2337
rig	-2338
▁rad	-2339
▁emb	-2340
▁shit	-2341
orge	-2342
▁talked	-2343
▁weight	-2344
▁jason	-2345
▁shall	-2346
▁super	-2347
▁color	-2348
cer	-2349
▁wore	-2350
▁fold	-2351
ald	-2352
▁handle	-2353
▁waist	-2354
aked	-2355
▁handed	-2356
▁effort	-2357
ancing	-2358
▁stayed	-2359
▁proper	-2360
fied	-2361
▁metal	-2362
▁shouted	-2363
▁track	-2364
▁pot	-2365
▁besides	-2366
ky	-2367
▁destro	-2368
▁fu	-2369
▁explained	-2370
▁vi	-2371
▁special	-2372
▁dim	-2373
▁motion	-2374
▁age	-2375
▁dry	-2376
▁laughing	-2377
idden	-2378
▁obs	-2379
▁firm	-2380
usted	-2381
▁note	-2382
▁following	-2383
we	-2384
lin	-2385
ana	-2386
▁usually	-2387
▁familiar	-2388
▁send	-2389
▁present	-2390
▁afternoon	-2391
ron	-2392
▁thom	-2393
▁jaw	-2394
acy	-2395
▁simple	-2396
▁apartment	-2397
▁lose	-2398
zen	-2399
▁mike	-2400
ural	-2401
▁band	-2402
▁yell	-2403
▁hate	-2404
▁shadow	-2405
▁aside	-2406
vern	-2407
▁une	-2408
▁fighting	-2409
▁glance	-2410
▁store	-2411
▁michael	-2412
▁breathing	-2413
▁muttered	-2414
▁bull	-2415
▁vo	-2416
▁hospital	-2417
▁forest	-2418
▁murm	-2419
come	-2420
▁aware	-2421
▁takes	-2422
wh	-2423
▁tar	-2424
▁missed	-2425
▁ly	-2426
▁favor	-2427
▁coo	-2428
▁moments	-2429
usion	-2430
▁relation	-2431
▁gest	-2432
owers	-2433
▁brain	-2434
▁len	-2435
▁definitely	-2436
▁rece	-2437
▁phys	-2438
▁pound	-2439
▁willing	-2440
▁discuss	-2441
asing	-2442
▁base	-2443
▁fix	-2444
▁pair	-2445
▁neither	-2446
ayed	-2447
▁equ	-2448
▁wet	-2449
▁bathroom	-2450
ping	-2451
▁ethan	-2452
▁escape	-2453
▁sea	-2454
▁surf	-2455
▁level	-2456
▁emma	-2457
▁queen	-2458
▁hat	-2459
▁personal	-2460
ries	-2461
▁chin	-2462
▁pub	-2463
▁forever	-2464
▁rachel	-2465
▁x	-2466
inct	-2467
▁port	-2468
ession	-2469
ston	-2470
▁lower	-2471
▁learned	-2472
ope	-2473
iers	-2474
▁falling	-2475
▁fresh	-2476
▁cheeks	-2477
▁needs	-2478
▁difficult	-2479
▁eventually	-2480
▁books	-2481
▁vill	-2482
▁rom	-2483
overed	-2484
▁lap	-2485
▁claire	-2486
▁scared	-2487
▁forehead	-2488
▁david	-2489
▁bod	-2490
▁echo	-2491
▁fort	-2492
▁tru	-2493
▁cried	-2494
esh	-2495
▁camer	-2496
igg	-2497
over	-2498
▁key	-2499
▁jud	-2500
▁summer	-2501
▁settled	-2502
aned	-2503
lt	-2504
▁busy	-2505
▁hill	-2506
▁treat	-2507
rid	-2508
cri	-2509
▁relief	-2510
▁tot	-2511
▁carried	-2512
▁appre	-2513
▁lab	-2514
▁prev	-2515
▁wondering	-2516
▁fit	-2517
▁speed	-2518
▁prov	-2519
▁desire	-2520
▁determ	-2521
▁ta	-2522
▁ah	-2523
▁disappeared	-2524
▁appear	-2525
▁knife	-2526
▁opening	-2527
▁likely	-2528
izing	-2529
den	-2530
ustr	-2531
▁scar	-2532
▁bell	-2533
▁demon	-2534
riage	-2535
▁inde	-2536
▁burst	-2537
▁comput	-2538
▁peace	-2539
▁lad	-2540
▁hol	-2541
val	-2542
▁shock	-2543
▁drove	-2544
▁wanting	-2545
▁apparently	-2546
men	-2547
▁phot	-2548
ob	-2549
▁spo	-2550
▁study	-2551
res	-2552
alth	-2553
▁emotion	-2554
▁counter	-2555
▁dangerous	-2556
▁shoot	-2557
▁dear	-2558
illed	-2559
ffect	-2560
ives	-2561
urity	-2562
▁understood	-2563
kes	-2564
▁wolf	-2565
bert	-2566
▁crack	-2567
▁syst	-2568
▁whisper	-2569
▁jon	-2570
▁ride	-2571
inked	-2572
rance	-2573
▁learn	-2574
▁court	-2575
▁pill	-2576
▁hea	-2577
▁adam	-2578
▁don	-2579
ution	-2580
oned	-2581
port	-2582
riend	-2583
▁aunt	-2584
▁windows	-2585
rit	-2586
▁pop	-2587
▁interru	-2588
ges	-2589
▁imposs	-2590
▁stick	-2591
for	-2592
▁fool	-2593
▁jac	-2594
ises	-2595
unity	-2596
▁missing	-2597
▁hated	-2598
▁starting	-2599
▁maj	-2600
▁yelled	-2601
ipp	-2602
▁date	-2603
▁noise	-2604
que	-2605
ded	-2606
▁simon	-2607
▁hist	-2608
▁screen	-2609
▁country	-2610
▁flat	-2611
ashing	-2612
▁guards	-2613
ored	-2614
▁aff	-2615
▁pin	-2616
▁scent	-2617
▁thomas	-2618
▁park	-2619
▁mal	-2620
▁careful	-2621
▁lunch	-2622
▁nar	-2623
▁powerful	-2624
▁shop	-2625
▁happening	-2626
▁push	-2627
▁putting	-2628
▁calling	-2629
▁drop	-2630
▁reading	-2631
ball	-2632
▁sweat	-2633
▁pale	-2634
▁hallway	-2635
▁grim	-2636
stairs	-2637
▁dom	-2638
▁enem	-2639
▁wake	-2640
▁offer	-2641
▁kat	-2642
▁island	-2643
▁approached	-2644
udd	-2645
▁daniel	-2646
▁suppose	-2647
yle	-2648
▁humans	-2649
▁ended	-2650
annah	-2651
attered	-2652
leep	-2653
▁gets	-2654
▁poor	-2655
▁screamed	-2656
acher	-2657
idge	-2658
anda	-2659
ledge	-2660
inting	-2661
▁message	-2662
cil	-2663
sidered	-2664
onse	-2665
▁defe	-2666
▁cho	-2667
▁var	-2668
ander	-2669
▁stuck	-2670
ading	-2671
▁presence	-2672
▁wear	-2673
ert	-2674
▁final	-2675
▁belong	-2676
▁shifted	-2677
▁station	-2678
▁obvious	-2679
▁joy	-2680
▁security	-2681
▁accept	-2682
▁third	-2683
line	-2684
aff	-2685
▁share	-2686
▁dance	-2687
itten	-2688
amb	-2689
miss	-2690
olute	-2691
▁feelings	-2692
▁hanging	-2693
▁allow	-2694
▁usual	-2695
▁laid	-2696
ified	-2697
▁truly	-2698
▁places	-2699
par	-2700
▁connect	-2701
▁nervous	-2702
▁sav	-2703
▁mot	-2704
▁asleep	-2705
yer	-2706
▁prete	-2707
▁north	-2708
rian	-2709
▁tele	-2710
▁spirit	-2711
▁considered	-2712
▁wit	-2713
▁succ	-2714
form	-2715
▁compl	-2716
▁enjoy	-2717
▁focus	-2718
arsh	-2719
cher	-2720
▁couch	-2721
▁cand	-2722
▁mart	-2723
▁speaking	-2724
▁bottle	-2725
▁gard	-2726
ye	-2727
▁gift	-2728
▁mach	-2729
▁thirty	-2730
▁relationship	-2731
inc	-2732
▁imm	-2733
▁spend	-2734
▁waved	-2735
▁effect	-2736
elle	-2737
▁trip	-2738
▁twisted	-2739
▁confused	-2740
▁finding	-2741
▁memories	-2742
▁reminded	-2743
▁response	-2744
▁wid	-2745
▁wine	-2746
▁figured	-2747
▁vampires	-2748
ius	-2749
▁ken	-2750
▁bent	-2751
▁josh	-2752
ug	-2753
▁rh	-2754
▁dust	-2755
▁growing	-2756
▁satis	-2757
▁necess	-2758
▁refle	-2759
▁flash	-2760
▁horri	-2761
▁consider	-2762
fast	-2763
▁asks	-2764
▁purp	-2765
▁unless	-2766
▁post	-2767
▁sleeping	-2768
▁evil	-2769
▁sof	-2770
astic	-2771
▁ways	-2772
▁oppos	-2773
▁uncle	-2774
▁wished	-2775
▁pul	-2776
▁shake	-2777
▁join	-2778
▁mirror	-2779
▁believed	-2780
▁elect	-2781
▁gate	-2782
▁marc	-2783
▁directly	-2784
oming	-2785
▁suff	-2786
▁spec	-2787
▁jeans	-2788
▁bother	-2789
▁impossible	-2790
ians	-2791
▁goes	-2792
▁blond	-2793
▁frank	-2794
▁turns	-2795
ern	-2796
▁admit	-2797
▁cru	-2798
▁viol	-2799
▁birth	-2800
athered	-2801
▁anywhere	-2802
▁shower	-2803
▁hotel	-2804
▁invest	-2805
▁jim	-2806
arm	-2807
▁mort	-2808
▁absolute	-2809
▁arr	-2810
▁hy	-2811
▁flesh	-2812
▁forth	-2813
▁experience	-2814
▁seven	-2815
▁fallen	-2816
▁roll	-2817
▁appreci	-2818
▁frustr	-2819
▁henry	-2820
▁trail	-2821
▁rul	-2822
ounced	-2823
▁accom	-2824
ury	-2825
▁smooth	-2826
▁hidden	-2827
▁grass	-2828
oured	-2829
▁tens	-2830
▁blind	-2831
▁matt	-2832
umped	-2833
▁yours	-2834
▁computer	-2835
▁conv	-2836
▁vol	-2837
▁ut	-2838
▁lucky	-2839
▁grip	-2840
▁shadows	-2841
▁listening	-2842
▁board	-2843
well	-2844
▁bodies	-2845
aur	-2846
▁taste	-2847
▁corre	-2848
▁est	-2849
lessly	-2850
▁support	-2851
ency	-2852
▁soldiers	-2853
▁bas	-2854
▁smoke	-2855
inal	-2856
anted	-2857
asm	-2858
uct	-2859
▁prop	-2860
asion	-2861
▁surface	-2862
▁system	-2863
▁prison	-2864
▁distract	-2865
▁colle	-2866
urch	-2867
▁jour	-2868
▁storm	-2869
▁climbed	-2870
▁prince	-2871
▁burning	-2872
▁lowered	-2873
▁general	-2874
▁drift	-2875
▁unable	-2876
▁trick	-2877
▁report	-2878
▁clen	-2879
▁craw	-2880
▁nur	-2881
arrass	-2882
▁cabin	-2883
▁burned	-2884
▁murmured	-2885
▁song	-2886
bing	-2887
ring	-2888
▁embarrass	-2889
▁capt	-2890
▁subject	-2891
▁entrance	-2892
▁acce	-2893
lock	-2894
▁army	-2895
▁beth	-2896
▁driver	-2897
▁interested	-2898
▁includ	-2899
▁private	-2900
▁possibly	-2901
iday	-2902
▁creature	-2903
▁mov	-2904
▁rub	-2905
▁hardly	-2906
▁rap	-2907
▁beach	-2908
▁extra	-2909
ses	-2910
▁ham	-2911
▁promised	-2912
▁played	-2913
▁ari	-2914
▁por	-2915
▁flying	-2916
▁involved	-2917
▁club	-2918
▁tech	-2919
▁victor	-2920
▁continue	-2921
▁mic	-2922
▁rough	-2923
but	-2924
▁disappo	-2925
▁dig	-2926
▁decision	-2927
▁nod	-2928
▁hole	-2929
▁produ	-2930
▁numb	-2931
▁warri	-2932
▁swallowed	-2933
eless	-2934
▁mere	-2935
▁pushing	-2936
▁repeated	-2937
▁unf	-2938
▁div	-2939
▁boat	-2940
▁rev	-2941
▁fought	-2942
▁blinked	-2943
▁dru	-2944
hood	-2945
▁sus	-2946
bor	-2947
▁vision	-2948
▁pink	-2949
▁respons	-2950
iot	-2951
ole	-2952
▁faces	-2953
▁checked	-2954
▁fright	-2955
▁comfortable	-2956
▁faint	-2957
▁harder	-2958
▁aut	-2959
▁jess	-2960
▁rush	-2961
▁finish	-2962
atic	-2963
▁nobody	-2964
▁uns	-2965
▁wheel	-2966
▁forgotten	-2967
▁aid	-2968
▁card	-2969
▁doorway	-2970
ibility	-2971
▁respect	-2972
▁tab	-2973
uit	-2974
anna	-2975
oose	-2976
rage	-2977
yal	-2978
▁narrow	-2979
▁jacket	-2980
▁rand	-2981
▁miles	-2982
roud	-2983
▁image	-2984
▁process	-2985
▁exist	-2986
▁search	-2987
▁wedding	-2988
wise	-2989
▁apolog	-2990
▁church	-2991
▁dreams	-2992
▁wooden	-2993
▁leather	-2994
▁breakfast	-2995
icious	-2996
▁sne	-2997
▁block	-2998
▁funny	-2999
▁current	-3000
▁demanded	-3001
bby	-3002
▁opposite	-3003
▁reaching	-3004
▁heading	-3005
▁amer	-3006
▁ment	-3007
▁weird	-3008
▁hiding	-3009
▁fil	-3010
▁wave	-3011
omfort	-3012
▁surely	-3013
▁travel	-3014
▁leaning	-3015
▁upset	-3016
▁perfectly	-3017
▁woods	-3018
▁terrible	-3019
▁doll	-3020
▁sides	-3021
▁warning	-3022
▁grab	-3023
▁rubbed	-3024
▁gasped	-3025
▁cleared	-3026
▁flew	-3027
▁ryan	-3028
▁weapon	-3029
cl	-3030
▁excited	-3031
▁concerned	-3032
▁jeff	-3033
▁south	-3034
▁lung	-3035
nel	-3036
host	-3037
▁buy	-3038
▁coat	-3039
▁bear	-3040
▁carol	-3041
▁struck	-3042
▁exha	-3043
▁crying	-3044
▁pier	-3045
▁rushed	-3046
board	-3047
▁inno	-3048
ords	-3049
▁spark	-3050
▁brothers	-3051
▁rese	-3052
▁fully	-3053
rick	-3054
▁ordered	-3055
▁hello	-3056
▁joined	-3057
▁hi	-3058
▁ghost	-3059
▁laught	-3060
▁laughter	-3061
▁born	-3062
▁feed	-3063
▁shoes	-3064
▁gras	-3065
▁scene	-3066
▁***	-3067
allen	-3068
▁blo	-3069
▁ow	-3070
rodu	-3071
▁history	-3072
itive	-3073
anging	-3074
▁hearing	-3075
lyn	-3076
iley	-3077
▁marry	-3078
▁neigh	-3079
▁trave	-3080
▁regret	-3081
une	-3082
▁tea	-3083
▁feat	-3084
▁driving	-3085
▁amy	-3086
▁purpose	-3087
inging	-3088
▁pieces	-3089
▁liz	-3090
▁instantly	-3091
▁mood	-3092
ett	-3093
mon	-3094
▁incred	-3095
▁wonderful	-3096
ades	-3097
▁cause	-3098
▁paid	-3099
▁faster	-3100
▁attract	-3101
▁palm	-3102
▁tossed	-3103
▁ceiling	-3104
▁disg	-3105
▁mac	-3106
▁greet	-3107
▁iron	-3108
▁chase	-3109
▁inj	-3110
▁size	-3111
▁amazing	-3112
▁fault	-3113
ners	-3114
▁auth	-3115
▁cost	-3116
▁indeed	-3117
▁seriously	-3118
▁parking	-3119
▁loose	-3120
▁west	-3121
▁studied	-3122
▁pants	-3123
▁jam	-3124
▁hunter	-3125
teen	-3126
▁focused	-3127
wards	-3128
▁proud	-3129
▁anno	-3130
▁bat	-3131
▁stream	-3132
▁clut	-3133
▁elev	-3134
tering	-3135
▁circle	-3136
▁vin	-3137
▁ident	-3138
▁mountain	-3139
▁yester	-3140
gar	-3141
▁risk	-3142
ndon	-3143
▁igno	-3144
▁guest	-3145
▁di	-3146
▁yesterday	-3147
▁welcome	-3148
▁gathered	-3149
▁prepared	-3150
▁plans	-3151
ented	-3152
ids	-3153
▁explo	-3154
▁heads	-3155
▁thumb	-3156
▁ignored	-3157
eke	-3158
▁iss	-3159
cks	-3160
work	-3161
otions	-3162
▁govern	-3163
▁built	-3164
▁descri	-3165
do	-3166
▁instinct	-3167
▁excuse	-3168
▁concent	-3169
gie	-3170
▁separ	-3171
▁spell	-3172
▁ban	-3173
▁beast	-3174
unately	-3175
alk	-3176
▁steady	-3177
▁breathe	-3178
▁tightly	-3179
essed	-3180
▁tremb	-3181
▁brushed	-3182
▁concern	-3183
▁slammed	-3184
bl	-3185
▁charlie	-3186
▁flight	-3187
▁accident	-3188
▁bound	-3189
▁comb	-3190
▁pool	-3191
▁blade	-3192
lla	-3193
rupt	-3194
▁lines	-3195
▁knowledge	-3196
▁swung	-3197
▁concentr	-3198
▁emotions	-3199
▁regard	-3200
▁eve	-3201
▁hors	-3202
▁oper	-3203
▁listened	-3204
▁yellow	-3205
▁bite	-3206
▁smart	-3207
lish	-3208
▁suggested	-3209
▁interesting	-3210
▁chuckled	-3211
▁cu	-3212
bers	-3213
▁opport	-3214
het	-3215
ils	-3216
spect	-3217
▁luci	-3218
▁author	-3219
▁roof	-3220
▁success	-3221
▁rum	-3222
▁released	-3223
▁shel	-3224
▁stretched	-3225
▁hig	-3226
house	-3227
▁stiff	-3228
▁hips	-3229
ancy	-3230
▁amb	-3231
▁panic	-3232
ism	-3233
▁twice	-3234
▁movement	-3235
ium	-3236
▁tent	-3237
▁woke	-3238
str	-3239
▁uh	-3240
▁pit	-3241
▁aud	-3242
▁muscles	-3243
▁ju	-3244
▁peter	-3245
▁plate	-3246
▁gather	-3247
▁carrying	-3248
aming	-3249
▁easier	-3250
▁elb	-3251
▁exam	-3252
▁button	-3253
▁stories	-3254
▁opt	-3255
▁non	-3256
▁rang	-3257
icle	-3258
▁quar	-3259
▁wrist	-3260
▁depart	-3261
▁scan	-3262
▁village	-3263
▁blur	-3264
▁magn	-3265
▁orig	-3266
velop	-3267
▁blow	-3268
▁cars	-3269
▁length	-3270
▁dut	-3271
abeth	-3272
▁bree	-3273
ground	-3274
▁feels	-3275
▁eld	-3276
▁crew	-3277
gn	-3278
▁anx	-3279
▁engine	-3280
▁golden	-3281
▁decide	-3282
▁mostly	-3283
▁shoved	-3284
▁hurried	-3285
ceed	-3286
▁jes	-3287
▁eliz	-3288
ura	-3289
uing	-3290
rel	-3291
▁dirt	-3292
▁leaves	-3293
▁rising	-3294
astian	-3295
▁horses	-3296
▁kicked	-3297
▁public	-3298
▁thrust	-3299
▁ya	-3300
▁pleased	-3301
bel	-3302
▁lake	-3303
▁staff	-3304
▁jan	-3305
▁restaur	-3306
issa	-3307
▁caused	-3308
▁cook	-3309
▁collect	-3310
hen	-3311
▁deck	-3312
▁planned	-3313
▁thigh	-3314
ague	-3315
nday	-3316
▁weapons	-3317
▁train	-3318
▁harm	-3319
▁dragon	-3320
▁reaction	-3321
mas	-3322
▁dare	-3323
▁comment	-3324
ulous	-3325
ilar	-3326
ivered	-3327
ham	-3328
▁pray	-3329
▁absolutely	-3330
▁affect	-3331
▁object	-3332
▁warmth	-3333
▁admitted	-3334
▁emily	-3335
▁challen	-3336
▁silently	-3337
▁necessary	-3338
▁saf	-3339
▁fist	-3340
igned	-3341
▁worst	-3342
ai	-3343
ama	-3344
▁avoid	-3345
time	-3346
▁flashed	-3347
▁sean	-3348
▁techn	-3349
▁tip	-3350
▁whose	-3351
min	-3352
▁giant	-3353
ational	-3354
▁landed	-3355
▁libr	-3356
▁soph	-3357
▁refused	-3358
▁occasion	-3359
▁hesitated	-3360
▁kate	-3361
▁squeezed	-3362
▁marriage	-3363
izz	-3364
▁eating	-3365
asc	-3366
▁george	-3367
▁decl	-3368
▁grown	-3369
▁nine	-3370
▁fat	-3371
▁psy	-3372
▁boots	-3373
▁hungry	-3374
nie	-3375
▁happens	-3376
▁removed	-3377
▁nate	-3378
▁breaking	-3379
▁killing	-3380
▁slept	-3381
off	-3382
▁fier	-3383
▁scra	-3384
▁recognized	-3385
▁answers	-3386
▁male	-3387
▁searching	-3388
▁stun	-3389
con	-3390
▁college	-3391
▁heaven	-3392
itude	-3393
▁claw	-3394
▁nearby	-3395
ensive	-3396
▁square	-3397
▁eyebrows	-3398
▁mistake	-3399
aret	-3400
▁beauty	-3401
yn	-3402
▁indic	-3403
▁fren	-3404
▁type	-3405
▁gabri	-3406
▁remain	-3407
▁otherwise	-3408
▁william	-3409
▁protest	-3410
▁lat	-3411
ivers	-3412
▁shocked	-3413
▁hurry	-3414
▁eager	-3415
▁ner	-3416
▁shared	-3417
▁knocked	-3418
▁staying	-3419
▁rare	-3420
▁jace	-3421
ume	-3422
▁anna	-3423
▁broad	-3424
▁shape	-3425
▁letter	-3426
erial	-3427
▁unfort	-3428
▁seb	-3429
▁gon	-3430
▁julian	-3431
dom	-3432
▁reality	-3433
eps	-3434
▁jose	-3435
▁sending	-3436
▁grey	-3437
▁leap	-3438
▁knock	-3439
▁screaming	-3440
▁losing	-3441
imp	-3442
case	-3443
▁fer	-3444
▁leading	-3445
▁uncomfort	-3446
▁pad	-3447
eline	-3448
ylie	-3449
▁convin	-3450
▁cave	-3451
▁arch	-3452
▁shudd	-3453
▁narr	-3454
ument	-3455
olas	-3456
▁glo	-3457
shirt	-3458
▁deeper	-3459
▁imagined	-3460
illy	-3461
▁tick	-3462
▁shield	-3463
ustom	-3464
kward	-3465
▁saved	-3466
▁introdu	-3467
▁elizabeth	-3468
book	-3469
▁awkward	-3470
▁helping	-3471
nes	-3472
▁local	-3473
▁showing	-3474
▁gigg	-3475
▁officer	-3476
▁garden	-3477
▁instru	-3478
▁enemy	-3479
▁phil	-3480
▁dying	-3481
▁curled	-3482
▁seth	-3483
▁awake	-3484
▁rout	-3485
▁grate	-3486
▁problems	-3487
▁deeply	-3488
▁closing	-3489
▁nature	-3490
▁growled	-3491
▁training	-3492
▁hug	-3493
bit	-3494
▁pant	-3495
▁bridge	-3496
▁surrounded	-3497
▁lily	-3498
▁greg	-3499
▁sour	-3500
▁ger	-3501
▁animal	-3502
▁excite	-3503
▁christmas	-3504
angu	-3505
▁bringing	-3506
▁sebastian	-3507
▁investig	-3508
▁opportunity	-3509
reme	-3510
▁rooms	-3511
▁mix	-3512
die	-3513
▁younger	-3514
▁favorite	-3515
▁council	-3516
eled	-3517
arily	-3518
▁attempt	-3519
▁passing	-3520
zing	-3521
▁record	-3522
▁entirely	-3523
▁discovered	-3524
▁honey	-3525
▁kylie	-3526
▁rag	-3527
▁rested	-3528
▁determined	-3529
▁eric	-3530
▁myster	-3531
▁spin	-3532
▁works	-3533
▁excitement	-3534
male	-3535
▁prefer	-3536
▁responded	-3537
▁beer	-3538
▁double	-3539
▁spun	-3540
▁major	-3541
▁reply	-3542
▁clenched	-3543
ieved	-3544
▁solid	-3545
▁jane	-3546
▁totally	-3547
▁bought	-3548
umbling	-3549
▁adj	-3550
▁veh	-3551
▁amount	-3552
antic	-3553
▁prin	-3554
sc	-3555
▁host	-3556
▁female	-3557
▁mentioned	-3558
ooked	-3559
ov	-3560
▁loss	-3561
▁gods	-3562
▁common	-3563
▁rick	-3564
▁dean	-3565
▁murder	-3566
ially	-3567
▁compan	-3568
▁boss	-3569
▁wand	-3570
▁physical	-3571
asy	-3572
▁bank	-3573
▁gall	-3574
▁exch	-3575
▁safety	-3576
▁pointing	-3577
▁plane	-3578
▁interrupted	-3579
▁buck	-3580
▁drawing	-3581
▁tightened	-3582
▁detect	-3583
ilities	-3584
▁consid	-3585
▁breathed	-3586
▁everywhere	-3587
▁text	-3588
▁castle	-3589
▁kissing	-3590
▁cow	-3591
▁sink	-3592
ork	-3593
▁curious	-3594
▁natural	-3595
ogra	-3596
▁betr	-3597
ille	-3598
▁glow	-3599
▁instant	-3600
▁til	-3601
▁stars	-3602
▁um	-3603
▁action	-3604
▁streets	-3605
▁thu	-3606
▁luke	-3607
▁restaurant	-3608
▁faded	-3609
▁intense	-3610
▁folded	-3611
▁experien	-3612
▁stat	-3613
▁displ	-3614
▁dragged	-3615
▁row	-3616
▁fal	-3617
▁stab	-3618
▁names	-3619
▁sha	-3620
▁tour	-3621
▁meaning	-3622
▁zo	-3623
▁fifteen	-3624
▁brick	-3625
▁wiped	-3626
▁noah	-3627
▁project	-3628
▁stage	-3629
▁cale	-3630
▁anci	-3631
▁andrew	-3632
▁plenty	-3633
▁faced	-3634
▁breast	-3635
▁ability	-3636
itor	-3637
▁poured	-3638
▁assist	-3639
fl	-3640
▁occur	-3641
▁pregn	-3642
olves	-3643
▁planet	-3644
▁enjoyed	-3645
af	-3646
▁gut	-3647
▁struggled	-3648
▁wis	-3649
▁enter	-3650
▁written	-3651
▁failed	-3652
▁relaxed	-3653
▁pure	-3654
▁stir	-3655
itched	-3656
▁waves	-3657
▁expecting	-3658
▁dun	-3659
alled	-3660
▁lack	-3661
eping	-3662
▁claim	-3663
▁steel	-3664
▁touching	-3665
wo	-3666
▁ze	-3667
▁swim	-3668
▁hous	-3669
▁setting	-3670
▁hom	-3671
▁smir	-3672
uc	-3673
▁bloody	-3674
▁jackson	-3675
▁match	-3676
▁glared	-3677
▁resist	-3678
▁mission	-3679
▁details	-3680
▁desperate	-3681
▁correct	-3682
iant	-3683
▁weeke	-3684
▁corrid	-3685
▁members	-3686
▁gle	-3687
▁charge	-3688
▁lif	-3689
▁kick	-3690
▁scrat	-3691
▁thinks	-3692
asha	-3693
▁incre	-3694
▁iv	-3695
▁brow	-3696
iment	-3697
▁creatures	-3698
aly	-3699
▁drawn	-3700
wood	-3701
▁winter	-3702
▁narrowed	-3703
athan	-3704
▁tear	-3705
▁groaned	-3706
▁jew	-3707
▁blanket	-3708
▁langu	-3709
omb	-3710
▁knee	-3711
▁particular	-3712
▁emer	-3713
▁prec	-3714
▁calls	-3715
▁unlike	-3716
▁aband	-3717
▁oce	-3718
▁blame	-3719
can	-3720
▁witness	-3721
▁considering	-3722
▁target	-3723
▁glasses	-3724
ique	-3725
▁logan	-3726
▁jerked	-3727
▁service	-3728
▁joe	-3729
▁pause	-3730
ora	-3731
arch	-3732
▁tro	-3733
ularly	-3734
▁san	-3735
▁ray	-3736
▁stronger	-3737
▁buried	-3738
key	-3739
▁obl	-3740
▁cassie	-3741
ios	-3742
asons	-3743
itary	-3744
thew	-3745
▁matthew	-3746
▁elevator	-3747
gress	-3748
▁irrit	-3749
▁machine	-3750
▁mc	-3751
▁ignore	-3752
▁firmly	-3753
agger	-3754
▁mod	-3755
▁chris	-3756
▁difference	-3757
▁cart	-3758
▁fish	-3759
▁liam	-3760
▁horror	-3761
▁bast	-3762
▁rolling	-3763
▁rise	-3764
▁ine	-3765
▁voices	-3766
▁startled	-3767
gu	-3768
▁kelly	-3769
▁exte	-3770
▁slip	-3771
▁skill	-3772
▁smiles	-3773
▁hal	-3774
▁ling	-3775
▁choose	-3776
▁result	-3777
▁temper	-3778
ooking	-3779
▁emplo	-3780
father	-3781
▁clock	-3782
lor	-3783
▁fail	-3784
▁yan	-3785
▁bru	-3786
▁tess	-3787
▁riley	-3788
fact	-3789
▁east	-3790
▁steve	-3791
▁manage	-3792
▁becoming	-3793
▁meal	-3794
▁tail	-3795
ral	-3796
unted	-3797
▁library	-3798
▁fuck	-3799
▁witch	-3800
▁higher	-3801
▁insisted	-3802
kn	-3803
oot	-3804
▁hint	-3805
▁orders	-3806
▁flowers	-3807
▁lightly	-3808
▁gripped	-3809
▁lucas	-3810
▁ancient	-3811
▁porch	-3812
▁pictures	-3813
ira	-3814
▁nowhere	-3815
▁pace	-3816
▁tied	-3817
mother	-3818
▁extreme	-3819
▁log	-3820
▁inh	-3821
▁sen	-3822
▁ted	-3823
▁tit	-3824
uries	-3825
▁papers	-3826
▁badly	-3827
▁reass	-3828
▁commun	-3829
▁features	-3830
▁sac	-3831
▁vac	-3832
▁pred	-3833
▁grad	-3834
▁dirty	-3835
ormed	-3836
athy	-3837
▁twel	-3838
friend	-3839
isa	-3840
icip	-3841
rett	-3842
▁bones	-3843
▁intim	-3844
▁rage	-3845
▁pressure	-3846
▁organ	-3847
▁reluct	-3848
▁received	-3849
▁account	-3850
illing	-3851
bye	-3852
▁julia	-3853
inn	-3854
▁tunnel	-3855
▁request	-3856
▁deb	-3857
▁ocean	-3858
▁health	-3859
ashes	-3860
▁julie	-3861
▁abrupt	-3862
▁leader	-3863
▁cloud	-3864
▁flames	-3865
▁marcus	-3866
amber	-3867
▁confir	-3868
▁dart	-3869
▁swept	-3870
▁evidence	-3871
▁fifty	-3872
▁faith	-3873
▁passion	-3874
▁throwing	-3875
▁thor	-3876
▁material	-3877
▁bul	-3878
▁lovely	-3879
▁belt	-3880
▁holl	-3881
alous	-3882
▁gw	-3883
ival	-3884
▁tucked	-3885
▁monster	-3886
▁planning	-3887
▁parked	-3888
▁dawn	-3889
inated	-3890
▁relieved	-3891
▁anticip	-3892
▁keys	-3893
▁farm	-3894
▁similar	-3895
inda	-3896
▁events	-3897
▁including	-3898
ki	-3899
▁edward	-3900
▁develop	-3901
owled	-3902
▁dozen	-3903
▁gabriel	-3904
▁created	-3905
▁carp	-3906
▁ms	-3907
▁ridic	-3908
erson	-3909
▁cele	-3910
▁vel	-3911
▁prove	-3912
▁sed	-3913
▁cole	-3914
▁heels	-3915
▁jacob	-3916
▁wings	-3917
▁cro	-3918
▁cock	-3919
▁race	-3920
▁guilt	-3921
inary	-3922
▁activ	-3923
▁spoken	-3924
ires	-3925
▁cel	-3926
▁cared	-3927
ization	-3928
▁intern	-3929
▁ali	-3930
▁embr	-3931
▁twelve	-3932
▁assumed	-3933
▁stair	-3934
▁confusion	-3935
▁movie	-3936
iber	-3937
▁huh	-3938
▁unw	-3939
▁psych	-3940
gl	-3941
▁blake	-3942
▁stranger	-3943
ature	-3944
icate	-3945
▁bigger	-3946
view	-3947
▁tan	-3948
▁robert	-3949
▁map	-3950
▁plain	-3951
intment	-3952
▁understanding	-3953
▁heavily	-3954
▁blast	-3955
▁uncomfortable	-3956
gram	-3957
▁disp	-3958
▁richard	-3959
▁bon	-3960
▁fab	-3961
▁facing	-3962
▁resc	-3963
▁cha	-3964
▁briefly	-3965
▁fac	-3966
▁honor	-3967
avi	-3968
erved	-3969
▁massive	-3970
icing	-3971
▁ate	-3972
▁dor	-3973
▁rocks	-3974
▁breeze	-3975
▁whenever	-3976
▁whom	-3977
▁drunk	-3978
▁widened	-3979
▁vir	-3980
▁tort	-3981
▁fol	-3982
▁sev	-3983
▁alright	-3984
han	-3985
rek	-3986
▁celebr	-3987
▁drinking	-3988
▁accepted	-3989
▁rust	-3990
ican	-3991
▁clo	-3992
▁buildings	-3993
dding	-3994
▁gives	-3995
pes	-3996
▁named	-3997
▁nightm	-3998
▁liqu	-3999
▁charac	-4000
atherine	-4001
▁english	-4002
▁sliding	-4003
▁write	-4004
ese	-4005
▁reasons	-4006
▁overw	-4007
▁accord	-4008
▁teacher	-4009
iving	-4010
ctions	-4011
▁cy	-4012
▁survive	-4013
▁mountains	-4014
▁unfortunately	-4015
▁rules	-4016
▁smelled	-4017
▁fate	-4018
iction	-4019
▁tension	-4020
▁searched	-4021
▁cous	-4022
▁weekend	-4023
▁bay	-4024
▁handsome	-4025
▁symp	-4026
▁french	-4027
▁curtain	-4028
▁grateful	-4029
hus	-4030
▁york	-4031
▁picking	-4032
▁butt	-4033
▁piss	-4034
▁journey	-4035
▁cream	-4036
▁release	-4037
▁tur	-4038
▁oliv	-4039
▁pile	-4040
aine	-4041
what	-4042
▁flood	-4043
▁helen	-4044
mit	-4045
▁joseph	-4046
▁wag	-4047
▁furn	-4048
▁skirt	-4049
▁bitter	-4050
neath	-4051
▁nurse	-4052
▁million	-4053
vision	-4054
▁innocent	-4055
▁princess	-4056
▁government	-4057
ita	-4058
uses	-4059
▁clouds	-4060
ify	-4061
iently	-4062
▁jenny	-4063
acks	-4064
▁yard	-4065
▁arrow	-4066
▁terror	-4067
▁causing	-4068
▁writing	-4069
▁kar	-4070
aches	-4071
istic	-4072
▁inch	-4073
▁upper	-4074
▁upstairs	-4075
▁nightmare	-4076
laimed	-4077
▁warned	-4078
▁buzz	-4079
▁fant	-4080
▁sara	-4081
▁sque	-4082
▁freed	-4083
▁swear	-4084
▁address	-4085
▁forgive	-4086
▁soldier	-4087
▁demons	-4088
▁clothing	-4089
▁practice	-4090
▁appreciate	-4091
▁grave	-4092
▁overwhel	-4093
▁soot	-4094
itions	-4095
▁shane	-4096
▁page	-4097
▁swift	-4098
▁intended	-4099
▁convinced	-4100
▁connection	-4101
▁tv	-4102
andra	-4103
▁stumbled	-4104
dge	-4105
eling	-4106
▁thrown	-4107
ris	-4108
▁rif	-4109
▁normally	-4110
▁nik	-4111
▁spotted	-4112
enger	-4113
antage	-4114
▁intell	-4115
ca	-4116
▁program	-4117
asure	-4118
▁snar	-4119
ashion	-4120
rog	-4121
▁cryst	-4122
▁flick	-4123
▁hugged	-4124
▁smaller	-4125
ounce	-4126
ference	-4127
▁rot	-4128
▁blew	-4129
▁ward	-4130
▁distant	-4131
▁various	-4132
ems	-4133
▁ba	-4134
▁olivia	-4135
ech	-4136
▁cig	-4137
▁swir	-4138
▁backed	-4139
▁wow	-4140
▁delight	-4141
▁larger	-4142
vis	-4143
▁task	-4144
▁orange	-4145
▁hero	-4146
▁teen	-4147
▁camera	-4148
▁bry	-4149
iest	-4150
▁spring	-4151
▁stopping	-4152
▁returning	-4153
ulf	-4154
▁eli	-4155
▁naked	-4156
▁chose	-4157
▁corridor	-4158
ential	-4159
▁taught	-4160
osen	-4161
▁resting	-4162
ivid	-4163
▁bird	-4164
▁mate	-4165
▁weather	-4166
▁screw	-4167
▁merely	-4168
▁surprising	-4169
▁doc	-4170
▁chick	-4171
▁jealous	-4172
tle	-4173
▁horrible	-4174
▁frame	-4175
▁underneath	-4176
iance	-4177
▁twist	-4178
mm	-4179
ona	-4180
▁distur	-4181
▁belly	-4182
▁height	-4183
▁destroy	-4184
▁slee	-4185
▁access	-4186
▁chairs	-4187
cut	-4188
erie	-4189
▁cheer	-4190
▁pressing	-4191
▁ack	-4192
▁haw	-4193
otte	-4194
▁fart	-4195
▁beck	-4196
▁ease	-4197
▁chosen	-4198
▁assured	-4199
▁egg	-4200
▁brand	-4201
▁president	-4202
ker	-4203
hand	-4204
▁puzz	-4205
▁exh	-4206
▁budd	-4207
▁conte	-4208
▁grandmother	-4209
▁desce	-4210
▁damage	-4211
▁recognize	-4212
ality	-4213
▁urge	-4214
▁gazed	-4215
▁waste	-4216
▁throughout	-4217
▁cliff	-4218
▁purse	-4219
▁dancing	-4220
▁tam	-4221
▁rebe	-4222
looking	-4223
▁frozen	-4224
▁boyfriend	-4225
ram	-4226
▁brad	-4227
phone	-4228
▁custom	-4229
▁warrior	-4230
▁desperately	-4231
▁ian	-4232
ograph	-4233
▁fierce	-4234
▁frustration	-4235
▁priest	-4236
▁animals	-4237
▁military	-4238
ocol	-4239
▁dread	-4240
ette	-4241
▁rail	-4242
gest	-4243
▁ens	-4244
heart	-4245
▁forty	-4246
▁mum	-4247
cture	-4248
▁chain	-4249
▁harsh	-4250
aks	-4251
▁mia	-4252
▁radio	-4253
ology	-4254
▁lungs	-4255
▁london	-4256
▁derek	-4257
▁glancing	-4258
loe	-4259
▁sank	-4260
▁unif	-4261
▁ripped	-4262
▁explan	-4263
▁rear	-4264
▁pounding	-4265
▁dug	-4266
▁starts	-4267
▁honestly	-4268
▁conscious	-4269
▁practically	-4270
hip	-4271
▁fists	-4272
▁scott	-4273
ption	-4274
▁occup	-4275
▁encou	-4276
▁shiver	-4277
▁sniff	-4278
▁plastic	-4279
▁due	-4280
▁maggie	-4281
▁civ	-4282
▁copy	-4283
▁brush	-4284
▁climb	-4285
▁spine	-4286
▁loudly	-4287
▁charlotte	-4288
▁depe	-4289
▁peered	-4290
▁somebody	-4291
aker	-4292
▁wil	-4293
idding	-4294
▁announced	-4295
kin	-4296
▁whir	-4297
▁parts	-4298
▁fed	-4299
▁torn	-4300
▁nights	-4301
▁gy	-4302
▁tore	-4303
▁formed	-4304
onscious	-4305
▁tang	-4306
▁sucked	-4307
▁numbers	-4308
▁pride	-4309
▁tony	-4310
▁escaped	-4311
▁students	-4312
▁enjoying	-4313
gy	-4314
▁brian	-4315
▁hast	-4316
▁destroyed	-4317
▁worn	-4318
▁joke	-4319
▁chamber	-4320
▁suspected	-4321
▁agent	-4322
▁charles	-4323
▁settle	-4324
po	-4325
▁concl	-4326
ulation	-4327
▁closet	-4328
▁ignoring	-4329
▁lots	-4330
▁ven	-4331
▁alec	-4332
▁profess	-4333
▁victoria	-4334
▁gav	-4335
▁footst	-4336
▁duty	-4337
▁froze	-4338
▁caress	-4339
▁daddy	-4340
▁ank	-4341
ibr	-4342
uel	-4343
▁neg	-4344
▁damp	-4345
▁fired	-4346
not	-4347
▁ackn	-4348
▁corp	-4349
▁chew	-4350
▁cred	-4351
▁sofa	-4352
▁hood	-4353
▁notes	-4354
▁victim	-4355
▁language	-4356
▁meat	-4357
▁beating	-4358
▁hunt	-4359
▁grabbing	-4360
▁split	-4361
▁strang	-4362
▁houses	-4363
▁exhausted	-4364
lle	-4365
▁rapid	-4366
▁signs	-4367
ences	-4368
▁powers	-4369
▁stepping	-4370
▁begun	-4371
▁chill	-4372
aper	-4373
▁thir	-4374
ppy	-4375
iana	-4376
▁awful	-4377
▁susan	-4378
▁tower	-4379
▁kisses	-4380
▁suspic	-4381
met	-4382
▁abby	-4383
▁silk	-4384
▁landing	-4385
▁painting	-4386
▁grant	-4387
▁sensation	-4388
▁bri	-4389
▁trapped	-4390
▁knight	-4391
fit	-4392
▁attacked	-4393
▁sexy	-4394
▁particularly	-4395
▁frightened	-4396
xp	-4397
umed	-4398
▁guns	-4399
▁fixed	-4400
▁guil	-4401
▁decor	-4402
▁inches	-4403
▁martin	-4404
▁bags	-4405
▁pour	-4406
▁amber	-4407
▁girlf	-4408
▁acting	-4409
sey	-4410
▁kim	-4411
▁aria	-4412
▁tugged	-4413
▁pregnant	-4414
▁trembling	-4415
omed	-4416
▁fury	-4417
▁kay	-4418
▁utter	-4419
▁guilty	-4420
▁abruptly	-4421
▁ridiculous	-4422
lan	-4423
▁clay	-4424
▁bench	-4425
▁intent	-4426
▁brill	-4427
▁stunned	-4428
▁approach	-4429
▁birthday	-4430
▁wink	-4431
▁emerg	-4432
▁raced	-4433
top	-4434
▁chloe	-4435
of	-4436
▁glare	-4437
▁gal	-4438
▁rent	-4439
▁capable	-4440
umps	-4441
▁polit	-4442
▁palace	-4443
▁temple	-4444
▁holiday	-4445
▁secrets	-4446
▁downstairs	-4447
▁drifted	-4448
ception	-4449
▁tender	-4450
▁dropping	-4451
▁neighbor	-4452
▁pulse	-4453
▁jere	-4454
▁footsteps	-4455
▁surrounding	-4456
▁bitch	-4457
▁echoed	-4458
▁flut	-4459
▁bone	-4460
▁heal	-4461
▁attend	-4462
eter	-4463
▁slide	-4464
▁disappear	-4465
▁judge	-4466
▁satur	-4467
▁whoever	-4468
▁images	-4469
acle	-4470
▁alarm	-4471
▁sooner	-4472
▁retreat	-4473
▁suspect	-4474
aire	-4475
▁confident	-4476
▁pil	-4477
▁zane	-4478
ule	-4479
▁tilted	-4480
▁pip	-4481
▁gorge	-4482
▁collaps	-4483
▁covering	-4484
▁crim	-4485
▁vibr	-4486
▁crou	-4487
▁inqu	-4488
▁previous	-4489
▁ais	-4490
ante	-4491
▁explos	-4492
▁balance	-4493
und	-4494
▁clary	-4495
▁rule	-4496
▁shr	-4497
sa	-4498
cra	-4499
▁vehicle	-4500
▁ai	-4501
▁trist	-4502
▁grandfather	-4503
▁der	-4504
▁bleed	-4505
▁according	-4506
len	-4507
coming	-4508
▁painful	-4509
▁jol	-4510
▁chann	-4511
mission	-4512
▁price	-4513
ran	-4514
▁won	-4515
▁frag	-4516
▁gwen	-4517
▁dining	-4518
▁ladies	-4519
▁tells	-4520
▁served	-4521
▁disgust	-4522
idy	-4523
iverse	-4524
▁idiot	-4525
▁silly	-4526
▁tables	-4527
▁display	-4528
▁remaining	-4529
▁convince	-4530
▁intellig	-4531
▁isa	-4532
▁gestured	-4533
▁rode	-4534
▁rope	-4535
▁ske	-4536
kered	-4537
▁raise	-4538
▁neil	-4539
▁afford	-4540
▁appearance	-4541
itation	-4542
▁washed	-4543
place	-4544
▁wash	-4545
gers	-4546
▁bowl	-4547
▁bob	-4548
▁lone	-4549
▁lex	-4550
▁bask	-4551
▁crap	-4552
▁perform	-4553
▁tex	-4554
▁avail	-4555
▁impat	-4556
▁speech	-4557
▁guessed	-4558
▁explanation	-4559
▁opin	-4560
▁isaac	-4561
▁hissed	-4562
▁thunder	-4563
▁terrified	-4564
cul	-4565
▁surre	-4566
▁design	-4567
▁init	-4568
▁manner	-4569
▁partner	-4570
▁condition	-4571
▁perio	-4572
▁uniform	-4573
ffic	-4574
▁advantage	-4575
▁sip	-4576
▁sin	-4577
▁laurence	-4578
▁everybody	-4579
oted	-4580
▁isab	-4581
▁plus	-4582
▁circum	-4583
▁flipped	-4584
▁riding	-4585
▁sensed	-4586
▁purch	-4587
▁wrote	-4588
▁shame	-4589
col	-4590
▁exit	-4591
▁bread	-4592
▁seren	-4593
▁lifting	-4594
▁changing	-4595
▁protection	-4596
iety	-4597
▁wes	-4598
amped	-4599
▁vall	-4600
▁damned	-4601
▁halfway	-4602
she	-4603
▁dogs	-4604
▁soci	-4605
▁cere	-4606
▁ting	-4607
▁elbow	-4608
▁ashe	-4609
▁royal	-4610
ka	-4611
▁godd	-4612
▁domin	-4613
▁matters	-4614
▁towel	-4615
▁contro	-4616
▁professor	-4617
▁jay	-4618
▁gesture	-4619
▁contract	-4620
ores	-4621
▁tay	-4622
iring	-4623
▁social	-4624
▁recently	-4625
▁vanished	-4626
elia	-4627
▁env	-4628
▁series	-4629
illa	-4630
▁etern	-4631
▁hannah	-4632
▁sisters	-4633
▁bowed	-4634
▁purple	-4635
▁farther	-4636
▁catching	-4637
eg	-4638
ruction	-4639
▁stands	-4640
▁infl	-4641
▁unus	-4642
▁loving	-4643
▁experienced	-4644
▁kevin	-4645
▁elena	-4646
▁impress	-4647
▁location	-4648
▁pulls	-4649
▁shooting	-4650
sion	-4651
▁mental	-4652
▁popped	-4653
ishment	-4654
▁butter	-4655
▁rig	-4656
attering	-4657
▁cracked	-4658
▁connected	-4659
▁holy	-4660
▁caroline	-4661
▁replaced	-4662
▁sunlight	-4663
▁snat	-4664
▁vers	-4665
▁pillow	-4666
od	-4667
angs	-4668
▁closely	-4669
ints	-4670
▁cash	-4671
▁killer	-4672
▁liquid	-4673
▁challenge	-4674
▁ourselves	-4675
aren	-4676
hern	-4677
▁sel	-4678
▁arrange	-4679
walk	-4680
▁gavin	-4681
oll	-4682
▁lied	-4683
▁jared	-4684
▁senses	-4685
ordan	-4686
▁nicole	-4687
▁dismiss	-4688
▁ren	-4689
▁letters	-4690
▁seeming	-4691
back	-4692
▁paying	-4693
▁occurred	-4694
▁glowing	-4695
▁fellow	-4696
▁garage	-4697
▁pattern	-4698
▁hopefully	-4699
eral	-4700
▁bunch	-4701
▁lined	-4702
▁source	-4703
▁exclaimed	-4704
▁checking	-4705
▁straightened	-4706
▁lur	-4707
▁maintain	-4708
▁poison	-4709
yler	-4710
▁tie	-4711
▁gown	-4712
▁universe	-4713
▁collar	-4714
▁traffic	-4715
mar	-4716
ites	-4717
▁sake	-4718
▁electric	-4719
▁cad	-4720
▁devil	-4721
▁chocol	-4722
▁points	-4723
▁ram	-4724
▁contemp	-4725
▁sunday	-4726
▁bastard	-4727
▁saturday	-4728
▁existence	-4729
hol	-4730
▁zach	-4731
xpected	-4732
▁member	-4733
ua	-4734
▁filling	-4735
reek	-4736
▁jamie	-4737
aging	-4738
▁contr	-4739
▁detective	-4740
▁dang	-4741
▁tapped	-4742
▁fan	-4743
jected	-4744
▁tough	-4745
riff	-4746
▁chat	-4747
bbled	-4748
▁deserve	-4749
▁pleasant	-4750
otted	-4751
▁chief	-4752
▁responsible	-4753
▁mumbled	-4754
▁palms	-4755
▁embarrassed	-4756
▁rhy	-4757
▁murd	-4758
▁sole	-4759
▁games	-4760
▁bothered	-4761
▁agreement	-4762
▁mult	-4763
▁plant	-4764
ache	-4765
▁hay	-4766
▁cutting	-4767
▁required	-4768
▁profession	-4769
▁purs	-4770
▁sell	-4771
▁patted	-4772
ients	-4773
▁disappointed	-4774
ige	-4775
▁nin	-4776
▁ron	-4777
▁nap	-4778
▁sched	-4779
▁guests	-4780
▁slowed	-4781
▁fence	-4782
▁lightning	-4783
▁remembering	-4784
ases	-4785
ault	-4786
▁section	-4787
▁american	-4788
▁hundreds	-4789
▁compet	-4790
aky	-4791
▁grasp	-4792
ae	-4793
known	-4794
▁assume	-4795
▁diss	-4796
▁sheet	-4797
▁property	-4798
▁nav	-4799
▁nods	-4800
▁neare	-4801
▁struggling	-4802
▁tuck	-4803
▁yanked	-4804
atically	-4805
▁girlfriend	-4806
bly	-4807
▁russ	-4808
▁strike	-4809
▁possibility	-4810
▁inner	-4811
▁neat	-4812
▁driveway	-4813
▁extremely	-4814
▁colon	-4815
▁unexpected	-4816
▁ep	-4817
▁racing	-4818
▁satisfied	-4819
▁approaching	-4820
hetic	-4821
▁anton	-4822
▁tatt	-4823
▁pretend	-4824
▁rubbing	-4825
▁clearing	-4826
▁prim	-4827
▁walks	-4828
▁argue	-4829
▁possess	-4830
nat	-4831
▁lies	-4832
apping	-4833
▁alice	-4834
▁research	-4835
▁stroked	-4836
▁jeremy	-4837
ata	-4838
▁fashion	-4839
▁attached	-4840
▁dw	-4841
▁vio	-4842
▁acqu	-4843
▁stal	-4844
▁cigaret	-4845
▁nervously	-4846
▁likes	-4847
▁smith	-4848
▁forcing	-4849
▁tray	-4850
▁thighs	-4851
▁wolves	-4852
▁medical	-4853
azed	-4854
▁birds	-4855
▁serge	-4856
▁invited	-4857
▁friendly	-4858
▁television	-4859
▁urg	-4860
anches	-4861
▁rib	-4862
▁jimmy	-4863
▁seated	-4864
▁somewhat	-4865
▁fasc	-4866
▁bullet	-4867
▁crystal	-4868
▁fingert	-4869
▁inspect	-4870
▁backward	-4871
▁statement	-4872
rier	-4873
ators	-4874
▁shim	-4875
unched	-4876
▁blonde	-4877
▁autom	-4878
▁bored	-4879
▁enorm	-4880
▁offering	-4881
▁suppl	-4882
▁fabric	-4883
▁original	-4884
▁file	-4885
▁taylor	-4886
▁hunting	-4887
▁carl	-4888
▁unlo	-4889
▁gorgeous	-4890
win	-4891
▁sway	-4892
▁former	-4893
▁studying	-4894
▁vague	-4895
▁drum	-4896
▁horiz	-4897
▁pockets	-4898
▁bord	-4899
▁clas	-4900
▁groan	-4901
▁skull	-4902
pack	-4903
▁vent	-4904
▁trusted	-4905
▁allowing	-4906
▁caut	-4907
umping	-4908
▁harry	-4909
▁conce	-4910
▁washing	-4911
zzy	-4912
▁curios	-4913
▁cursed	-4914
▁hank	-4915
▁alley	-4916
▁intens	-4917
▁jesus	-4918
▁scient	-4919
▁sheriff	-4920
▁circumst	-4921
▁confidence	-4922
▁flu	-4923
▁cloth	-4924
▁friday	-4925
▁coach	-4926
▁noted	-4927
▁vide	-4928
▁vul	-4929
▁snorted	-4930
▁ri	-4931
otic	-4932
▁aiden	-4933
▁univers	-4934
ino	-4935
▁cute	-4936
▁grief	-4937
▁lately	-4938
▁packed	-4939
▁savannah	-4940
ico	-4941
▁barn	-4942
▁advice	-4943
raw	-4944
▁ber	-4945
▁plat	-4946
▁louder	-4947
cast	-4948
▁hook	-4949
▁civil	-4950
▁patch	-4951
▁yards	-4952
▁aim	-4953
▁eyed	-4954
▁cousin	-4955
▁immort	-4956
▁freedom	-4957
▁exce	-4958
▁gabe	-4959
▁tessa	-4960
▁valley	-4961
▁pee	-4962
▁shade	-4963
▁scramb	-4964
ales	-4965
ifer	-4966
▁sacri	-4967
▁detail	-4968
▁feared	-4969
▁painted	-4970
▁regular	-4971
▁raw	-4972
inkled	-4973
▁colin	-4974
▁curse	-4975
▁disbel	-4976
▁available	-4977
▁violet	-4978
▁addition	-4979
▁paint	-4980
▁tattoo	-4981
▁holly	-4982
▁deg	-4983
▁nodding	-4984
▁extended	-4985
▁withd	-4986
▁insane	-4987
aze	-4988
emon	-4989
▁sharply	-4990
▁trailed	-4991
aping	-4992
▁kell	-4993
▁shakes	-4994
▁states	-4995
▁miranda	-4996
▁distracted	-4997
pri	-4998
five	-4999
▁loves	-5000
▁accomp	-5001
▁connor	-5002
▁roy	-5003
clock	-5004
▁trace	-5005
▁discover	-5006
▁rat	-5007
▁mask	-5008
▁slapped	-5009
▁net	-5010
▁adult	-5011
▁branches	-5012
▁happiness	-5013
▁raising	-5014
▁brilliant	-5015
▁uncertain	-5016
▁keeps	-5017
▁cooper	-5018
▁accompl	-5019
▁mand	-5020
▁tense	-5021
▁retrie	-5022
▁chocolate	-5023
▁ug	-5024
bble	-5025
sters	-5026
▁shown	-5027
▁whist	-5028
▁rushing	-5029
▁abandoned	-5030
ylan	-5031
▁exe	-5032
▁jordan	-5033
▁shivered	-5034
▁spinning	-5035
▁drown	-5036
▁liter	-5037
▁shore	-5038
▁reveal	-5039
▁complic	-5040
▁tristan	-5041
▁clar	-5042
▁proceed	-5043
▁ess	-5044
▁lux	-5045
▁marie	-5046
▁courage	-5047
▁express	-5048
ushes	-5049
▁flin	-5050
▁answering	-5051
elled	-5052
▁wise	-5053
▁goodbye	-5054
▁trained	-5055
▁sts	-5056
stand	-5057
▁teach	-5058
▁basket	-5059
▁muscle	-5060
▁curiosity	-5061
▁troub	-5062
▁colors	-5063
▁contain	-5064
▁cher	-5065
▁falls	-5066
▁knelt	-5067
▁character	-5068
▁elder	-5069
▁revealed	-5070
▁realizing	-5071
ias	-5072
chan	-5073
▁opinion	-5074
▁background	-5075
▁ast	-5076
▁unh	-5077
▁sport	-5078
▁strode	-5079
▁grinning	-5080
▁threatened	-5081
▁drug	-5082
▁invis	-5083
▁period	-5084
year	-5085
▁recall	-5086
ella	-5087
agged	-5088
▁ratt	-5089
▁total	-5090
▁progress	-5091
▁ruth	-5092
▁morgan	-5093
▁slipping	-5094
▁thousands	-5095
▁remark	-5096
▁society	-5097
▁passenger	-5098
phe	-5099
vet	-5100
▁dave	-5101
▁ideas	-5102
▁loyal	-5103
husi	-5104
▁amused	-5105
▁shopping	-5106
rs	-5107
▁billy	-5108
▁bol	-5109
▁devon	-5110
▁shrie	-5111
avier	-5112
▁desert	-5113
▁deliber	-5114
▁constant	-5115
▁genu	-5116
▁market	-5117
ya	-5118
anor	-5119
▁ing	-5120
▁trad	-5121
▁punch	-5122
aid	-5123
encer	-5124
▁spar	-5125
▁danny	-5126
anges	-5127
iture	-5128
▁gran	-5129
▁tend	-5130
▁cards	-5131
▁create	-5132
▁sounding	-5133
dle	-5134
▁surve	-5135
▁arched	-5136
▁hunger	-5137
▁suck	-5138
▁stead	-5139
ila	-5140
ooped	-5141
▁moves	-5142
▁centuries	-5143
▁dollars	-5144
▁scanned	-5145
▁shining	-5146
▁duke	-5147
▁ugly	-5148
▁wing	-5149
▁serve	-5150
atively	-5151
▁sid	-5152
orter	-5153
umble	-5154
▁dull	-5155
▁coast	-5156
▁anybody	-5157
▁motioned	-5158
▁cot	-5159
▁belonged	-5160
▁flame	-5161
▁patient	-5162
▁midnight	-5163
▁hip	-5164
▁medic	-5165
roll	-5166
▁impro	-5167
▁issue	-5168
▁sevent	-5169
▁emerged	-5170
▁shuddered	-5171
▁alt	-5172
▁mall	-5173
▁genuine	-5174
▁minds	-5175
▁stones	-5176
▁greeted	-5177
rison	-5178
▁swing	-5179
▁complex	-5180
ads	-5181
rous	-5182
▁commander	-5183
▁amanda	-5184
▁airport	-5185
▁whispers	-5186
▁nud	-5187
▁bran	-5188
▁entertain	-5189
ront	-5190
▁actual	-5191
▁spending	-5192
▁tap	-5193
▁amuse	-5194
▁famil	-5195
▁overhead	-5196
cle	-5197
olen	-5198
▁mason	-5199
▁gregor	-5200
▁code	-5201
▁calmly	-5202
▁nathan	-5203
▁hmm	-5204
▁raven	-5205
▁annoyed	-5206
▁core	-5207
▁lucy	-5208
sequ	-5209
▁fel	-5210
▁crime	-5211
▁enormous	-5212
nn	-5213
▁dumb	-5214
▁caleb	-5215
▁casual	-5216
▁enthusi	-5217
wolf	-5218
asper	-5219
▁interview	-5220
▁pissed	-5221
▁christian	-5222
▁trunk	-5223
▁communic	-5224
▁furniture	-5225
▁inn	-5226
▁les	-5227
▁marg	-5228
▁trap	-5229
▁content	-5230
▁embrace	-5231
▁rip	-5232
icles	-5233
▁betray	-5234
▁department	-5235
▁oliver	-5236
▁exposed	-5237
bey	-5238
iven	-5239
▁actions	-5240
▁foolish	-5241
▁individ	-5242
▁intention	-5243
▁eased	-5244
▁licked	-5245
hold	-5246
▁lev	-5247
▁reb	-5248
▁dial	-5249
oop	-5250
▁moder	-5251
▁cit	-5252
gered	-5253
▁toes	-5254
▁daemon	-5255
▁fairly	-5256
▁hitting	-5257
▁gasp	-5258
▁snap	-5259
vert	-5260
▁tub	-5261
▁link	-5262
▁teasing	-5263
▁visible	-5264
▁argument	-5265
ford	-5266
▁lor	-5267
▁rab	-5268
▁ree	-5269
▁humor	-5270
▁arrive	-5271
▁families	-5272
pting	-5273
▁arrest	-5274
▁carpet	-5275
▁rescue	-5276
▁teased	-5277
▁wishing	-5278
▁claimed	-5279
▁eyel	-5280
▁tara	-5281
▁accent	-5282
▁drinks	-5283
▁thread	-5284
▁exploded	-5285
▁warriors	-5286
▁gathering	-5287
azz	-5288
ji	-5289
▁drank	-5290
▁moist	-5291
▁refer	-5292
▁spare	-5293
▁advent	-5294
▁assass	-5295
▁mud	-5296
▁depth	-5297
vering	-5298
uce	-5299
umn	-5300
▁throne	-5301
▁spencer	-5302
▁unusual	-5303
atory	-5304
▁bart	-5305
▁provided	-5306
uous	-5307
▁veins	-5308
▁placing	-5309
▁claws	-5310
▁nerves	-5311
rete	-5312
▁pist	-5313
down	-5314
craft	-5315
▁creep	-5316
▁mixed	-5317
▁stated	-5318
▁incredible	-5319
▁tax	-5320
▁rome	-5321
▁realm	-5322
▁tracks	-5323
▁newsp	-5324
▁restr	-5325
end	-5326
▁diam	-5327
▁crash	-5328
▁secure	-5329
▁vulner	-5330
▁annie	-5331
▁stall	-5332
▁knocking	-5333
ago	-5334
▁ja	-5335
▁satisfact	-5336
ika	-5337
▁scen	-5338
▁owner	-5339
▁ax	-5340
uled	-5341
beat	-5342
mered	-5343
▁collapsed	-5344
oe	-5345
▁shuff	-5346
▁rifle	-5347
▁wealth	-5348
▁kidding	-5349
▁precious	-5350
vor	-5351
avior	-5352
▁term	-5353
▁rarely	-5354
▁remains	-5355
▁scattered	-5356
eds	-5357
fall	-5358
▁virg	-5359
▁brave	-5360
▁fruit	-5361
▁learning	-5362
▁craft	-5363
▁holds	-5364
▁circumstances	-5365
bre	-5366
rily	-5367
▁ach	-5368
▁roman	-5369
▁delicate	-5370
▁resol	-5371
▁fingertips	-5372
mate	-5373
ulate	-5374
▁deserved	-5375
▁ends	-5376
▁pir	-5377
▁finn	-5378
▁passage	-5379
▁revealing	-5380
▁gul	-5381
▁boxes	-5382
▁flower	-5383
acon	-5384
▁option	-5385
▁drake	-5386
▁servants	-5387
▁alexander	-5388
▁miser	-5389
▁sandw	-5390
▁style	-5391
▁moaned	-5392
ato	-5393
ville	-5394
▁clan	-5395
▁bleeding	-5396
▁invisible	-5397
iter	-5398
fying	-5399
▁quinn	-5400
▁trade	-5401
▁excell	-5402
▁informed	-5403
▁ships	-5404
▁stern	-5405
▁parted	-5406
▁sheets	-5407
▁kingdom	-5408
▁unknown	-5409
ops	-5410
▁clue	-5411
▁mail	-5412
▁moan	-5413
▁disbelief	-5414
▁gates	-5415
▁leapt	-5416
▁terms	-5417
▁behavior	-5418
▁edges	-5419
▁willow	-5420
▁impressed	-5421
▁deny	-5422
▁et	-5423
▁seats	-5424
▁shouting	-5425
▁directions	-5426
▁impression	-5427
▁photo	-5428
▁proof	-5429
▁alar	-5430
▁appl	-5431
▁symb	-5432
▁frances	-5433
▁happily	-5434
bur	-5435
▁ras	-5436
▁beard	-5437
▁video	-5438
▁cameron	-5439
▁community	-5440
ickered	-5441
▁credit	-5442
▁skills	-5443
▁appo	-5444
▁tavi	-5445
▁eaten	-5446
▁begins	-5447
▁garrett	-5448
▁climbing	-5449
▁expensive	-5450
▁colo	-5451
▁stag	-5452
▁equip	-5453
▁neighb	-5454
▁cassidy	-5455
▁survived	-5456
pect	-5457
▁robe	-5458
▁rhyth	-5459
▁shorts	-5460
world	-5461
▁student	-5462
lings	-5463
▁winked	-5464
▁cris	-5465
▁fake	-5466
▁entry	-5467
▁pages	-5468
▁officers	-5469
oud	-5470
▁fred	-5471
▁katherine	-5472
oph	-5473
▁stops	-5474
▁flushed	-5475
▁ere	-5476
▁squir	-5477
▁dagger	-5478
▁sacrif	-5479
▁wounds	-5480
▁carriage	-5481
▁individual	-5482
▁crawled	-5483
▁attempted	-5484
▁ga	-5485
▁sib	-5486
oops	-5487
▁lucien	-5488
▁ult	-5489
▁role	-5490
▁covers	-5491
▁repres	-5492
▁dating	-5493
▁potential	-5494
▁dece	-5495
▁laura	-5496
▁range	-5497
▁pistol	-5498
▁amusement	-5499
▁sees	-5500
▁champ	-5501
▁habit	-5502
▁adjust	-5503
▁equipment	-5504
uts	-5505
▁career	-5506
▁danced	-5507
▁photograph	-5508
▁vast	-5509
ulated	-5510
▁greater	-5511
▁shortly	-5512
▁cage	-5513
▁beam	-5514
▁ripp	-5515
▁crept	-5516
uded	-5517
▁quit	-5518
▁marsh	-5519
▁roar	-5520
▁sally	-5521
▁remove	-5522
▁furious	-5523
▁corners	-5524
▁muff	-5525
▁anxious	-5526
▁defense	-5527
▁official	-5528
▁tank	-5529
▁forces	-5530
▁runs	-5531
▁guide	-5532
▁emotional	-5533
ado	-5534
cca	-5535
▁toby	-5536
▁marks	-5537
▁nails	-5538
▁symbol	-5539
▁screams	-5540
urs	-5541
▁sail	-5542
uments	-5543
urally	-5544
▁jewel	-5545
▁enemies	-5546
▁separate	-5547
ta	-5548
▁fog	-5549
▁hid	-5550
▁haven	-5551
▁saving	-5552
▁useful	-5553
hem	-5554
▁tasted	-5555
▁provide	-5556
▁treated	-5557
▁disappointment	-5558
da	-5559
fire	-5560
isions	-5561
▁random	-5562
▁floating	-5563
rom	-5564
ugg	-5565
mond	-5566
▁till	-5567
▁todd	-5568
▁brows	-5569
▁shrug	-5570
▁lauren	-5571
▁scru	-5572
▁stubb	-5573
▁dealing	-5574
▁horizon	-5575
▁lun	-5576
▁traveled	-5577
▁emergency	-5578
▁wren	-5579
▁waving	-5580
oon	-5581
▁flicked	-5582
mn	-5583
oul	-5584
▁gear	-5585
▁dylan	-5586
▁relig	-5587
▁eleven	-5588
▁mortal	-5589
▁charged	-5590
▁jumping	-5591
▁melissa	-5592
▁laz	-5593
imate	-5594
▁shell	-5595
▁concrete	-5596
▁sele	-5597
▁rhythm	-5598
▁punched	-5599
raged	-5600
▁hart	-5601
formed	-5602
▁hanna	-5603
▁trevor	-5604
▁unsure	-5605
▁sentence	-5606
▁lee	-5607
▁lust	-5608
▁illum	-5609
▁crowded	-5610
▁hills	-5611
boy	-5612
▁glor	-5613
▁sire	-5614
▁doubted	-5615
▁whipped	-5616
▁wre	-5617
▁josie	-5618
▁sadness	-5619
eyed	-5620
hens	-5621
▁snake	-5622
▁upward	-5623
field	-5624
▁wrap	-5625
▁della	-5626
▁march	-5627
▁duncan	-5628
▁chicken	-5629
▁audience	-5630
▁permission	-5631
▁ez	-5632
impse	-5633
▁bond	-5634
▁crown	-5635
▁influ	-5636
▁paris	-5637
▁lonely	-5638
▁glimpse	-5639
▁anticipation	-5640
four	-5641
▁driven	-5642
lights	-5643
▁contents	-5644
▁struggle	-5645
▁dee	-5646
▁choked	-5647
▁marked	-5648
▁tempor	-5649
▁unconscious	-5650
iev	-5651
nal	-5652
itar	-5653
rant	-5654
▁alco	-5655
▁franc	-5656
▁stock	-5657
▁deliver	-5658
▁satisfaction	-5659
▁breaths	-5660
▁diamond	-5661
▁insp	-5662
rey	-5663
▁flow	-5664
▁nest	-5665
▁insist	-5666
▁sleeve	-5667
▁xavier	-5668
▁reflection	-5669
urance	-5670
▁chaos	-5671
▁recent	-5672
outs	-5673
▁shy	-5674
▁singing	-5675
vit	-5676
etch	-5677
▁souls	-5678
▁ducked	-5679
▁handful	-5680
▁mechan	-5681
▁winced	-5682
▁lobby	-5683
▁exchange	-5684
rin	-5685
var	-5686
▁puff	-5687
▁wounded	-5688
▁wandered	-5689
fan	-5690
▁defend	-5691
▁shattered	-5692
▁threatening	-5693
▁oil	-5694
▁apologize	-5695
▁excellent	-5696
aud	-5697
amps	-5698
▁motor	-5699
▁rebecca	-5700
▁football	-5701
ament	-5702
▁andre	-5703
▁flowing	-5704
▁hurting	-5705
▁reluctantly	-5706
▁lover	-5707
▁majest	-5708
▁changes	-5709
▁imagination	-5710
mber	-5711
▁revol	-5712
ga	-5713
nis	-5714
▁based	-5715
▁spect	-5716
▁swiftly	-5717
▁clutched	-5718
▁dragging	-5719
inger	-5720
▁evan	-5721
▁site	-5722
▁drugs	-5723
ability	-5724
▁impact	-5725
▁prevent	-5726
▁stubborn	-5727
▁frustrated	-5728
etr	-5729
soci	-5730
▁jar	-5731
priate	-5732
▁circles	-5733
▁upright	-5734
foot	-5735
▁jun	-5736
▁bars	-5737
▁dock	-5738
▁switch	-5739
▁arrival	-5740
▁prepare	-5741
ieve	-5742
▁fangs	-5743
▁digging	-5744
▁rapidly	-5745
▁companion	-5746
▁oak	-5747
▁mack	-5748
▁callum	-5749
▁endless	-5750
▁sneak	-5751
▁steal	-5752
▁healing	-5753
py	-5754
▁lil	-5755
▁associ	-5756
▁wicked	-5757
▁begged	-5758
▁injured	-5759
▁ache	-5760
▁mile	-5761
▁route	-5762
orate	-5763
▁lege	-5764
▁jones	-5765
▁neckl	-5766
▁laughs	-5767
▁spirits	-5768
▁gem	-5769
▁blink	-5770
▁sophie	-5771
aves	-5772
▁scarlet	-5773
▁suspicious	-5774
▁questioning	-5775
▁sem	-5776
▁nich	-5777
▁items	-5778
▁scare	-5779
▁roared	-5780
▁crashed	-5781
▁quarter	-5782
▁squeeze	-5783
▁werewolf	-5784
▁mane	-5785
▁nearest	-5786
▁geor	-5787
▁aston	-5788
▁biggest	-5789
▁cleaning	-5790
▁properly	-5791
▁delicious	-5792
yard	-5793
▁magaz	-5794
inating	-5795
▁spider	-5796
asty	-5797
▁maid	-5798
▁signal	-5799
▁ordinary	-5800
▁boot	-5801
▁eleg	-5802
▁lace	-5803
▁seek	-5804
▁remote	-5805
▁stephan	-5806
▁mattered	-5807
▁movements	-5808
▁anth	-5809
▁halt	-5810
▁stefan	-5811
▁apr	-5812
▁mob	-5813
▁vig	-5814
▁rever	-5815
▁stress	-5816
▁constantly	-5817
ni	-5818
▁wiz	-5819
▁jerk	-5820
▁joshua	-5821
▁arranged	-5822
▁aloud	-5823
▁wrists	-5824
▁professional	-5825
ero	-5826
gger	-5827
ndered	-5828
▁supplies	-5829
▁kane	-5830
▁cough	-5831
▁movies	-5832
mist	-5833
▁suc	-5834
▁cord	-5835
▁gradu	-5836
▁closest	-5837
▁stretch	-5838
▁backpack	-5839
▁wrapping	-5840
▁hesitation	-5841
▁cloak	-5842
▁flung	-5843
▁monday	-5844
▁fucking	-5845
▁kicking	-5846
▁span	-5847
▁alien	-5848
▁existed	-5849
▁pity	-5850
▁lawyer	-5851
oms	-5852
▁cain	-5853
▁mama	-5854
▁armor	-5855
▁click	-5856
▁expert	-5857
▁perman	-5858
▁stolen	-5859
▁stuffed	-5860
▁lawn	-5861
▁alert	-5862
xed	-5863
▁lic	-5864
▁slo	-5865
▁limbs	-5866
▁temer	-5867
▁sergeant	-5868
erc	-5869
you	-5870
▁cult	-5871
▁shif	-5872
▁makeup	-5873
▁helpless	-5874
▁rate	-5875
▁summ	-5876
▁dorm	-5877
▁spat	-5878
▁syl	-5879
▁succeed	-5880
eness	-5881
▁wagon	-5882
▁polite	-5883
▁crossing	-5884
▁directed	-5885
▁contained	-5886
▁jenn	-5887
▁dried	-5888
▁fields	-5889
▁modern	-5890
▁swallow	-5891
▁tighter	-5892
▁useless	-5893
reg	-5894
▁captured	-5895
▁scri	-5896
▁cruel	-5897
▁sheep	-5898
▁shots	-5899
▁alcohol	-5900
▁giggled	-5901
▁possessed	-5902
▁reception	-5903
unte	-5904
▁pow	-5905
▁gain	-5906
mering	-5907
▁swore	-5908
▁volunte	-5909
▁backwards	-5910
▁scrambled	-5911
▁crad	-5912
▁device	-5913
▁suffering	-5914
▁owe	-5915
▁rod	-5916
▁dism	-5917
▁coinc	-5918
▁mystery	-5919
aries	-5920
▁temeraire	-5921
▁ni	-5922
town	-5923
▁jet	-5924
▁thus	-5925
▁frequ	-5926
▁frost	-5927
▁owned	-5928
▁drawer	-5929
▁ruined	-5930
▁safely	-5931
law	-5932
▁buddy	-5933
▁incident	-5934
▁raz	-5935
▁milk	-5936
▁fourth	-5937
▁flashing	-5938
▁realised	-5939
▁aver	-5940
▁lifet	-5941
▁stole	-5942
▁classes	-5943
▁feather	-5944
▁childhood	-5945
▁deadly	-5946
▁marble	-5947
isc	-5948
unting	-5949
▁cocked	-5950
▁grandp	-5951
▁johnny	-5952
▁recover	-5953
▁sits	-5954
▁ellie	-5955
▁youth	-5956
▁positive	-5957
▁thorough	-5958
▁glim	-5959
▁chances	-5960
▁cigarette	-5961
▁?!	-5962
▁fancy	-5963
▁century	-5964
▁literally	-5965
▁preparing	-5966
erve	-5967
▁awa	-5968
ffered	-5969
▁darted	-5970
▁casually	-5971
▁ruin	-5972
▁magical	-5973
▁protected	-5974
▁vulnerable	-5975
ctors	-5976
▁bike	-5977
▁mild	-5978
▁hollow	-5979
▁slumped	-5980
▁envel	-5981
▁estab	-5982
▁precise	-5983
▁sharing	-5984
▁intensity	-5985
ques	-5986
▁reput	-5987
▁carved	-5988
▁patience	-5989
▁introduced	-5990
▁jax	-5991
▁rafe	-5992
haired	-5993
▁suffer	-5994
▁waking	-5995
▁mas	-5996
stone	-5997
▁trem	-5998
▁sadly	-5999
▁patrick	-6000
▁envelope	-6001
▁university	-6002
▁eur	-6003
▁lamp	-6004
▁candle	-6005
▁america	-6006
▁sixteen	-6007
▁assistant	-6008
▁nora	-6009
▁freak	-6010
▁hired	-6011
▁shelter	-6012
▁shifting	-6013
▁sidewalk	-6014
▁ka	-6015
▁cops	-6016
▁cheese	-6017
▁glances	-6018
▁incredibly	-6019
▁fond	-6020
▁shows	-6021
▁wy	-6022
▁bolt	-6023
gment	-6024
▁ribs	-6025
oid	-6026
▁kal	-6027
▁brit	-6028
▁divor	-6029
▁sugar	-6030
▁percent	-6031
▁snarled	-6032
▁kh	-6033
ulted	-6034
▁cott	-6035
▁stack	-6036
▁romantic	-6037
▁swinging	-6038
▁examp	-6039
▁joyah	-6040
▁entering	-6041
▁responsibility	-6042
▁infect	-6043
veled	-6044
▁whit	-6045
▁acted	-6046
▁armed	-6047
▁swords	-6048
▁version	-6049
▁darkened	-6050
▁rude	-6051
▁absor	-6052
ggy	-6053
▁earn	-6054
▁graham	-6055
▁grunted	-6056
▁confirmed	-6057
wind	-6058
pical	-6059
▁false	-6060
▁proved	-6061
▁appears	-6062
▁eighteen	-6063
▁wherever	-6064
▁pretending	-6065
▁balls	-6066
▁fears	-6067
▁shiny	-6068
▁zomb	-6069
▁consequ	-6070
▁figures	-6071
▁fled	-6072
▁albert	-6073
▁territ	-6074
▁pouring	-6075
▁crouched	-6076
▁bride	-6077
▁clicked	-6078
▁darling	-6079
▁bor	-6080
▁lesson	-6081
▁stirred	-6082
▁compared	-6083
▁frowning	-6084
gen	-6085
▁ps	-6086
▁nina	-6087
▁nort	-6088
▁melted	-6089
▁sheer	-6090
▁swimming	-6091
▁traveling	-6092
▁boo	-6093
▁fox	-6094
▁hopes	-6095
▁novel	-6096
▁heartbeat	-6097
▁discussion	-6098
iece	-6099
venge	-6100
▁gene	-6101
▁jenna	-6102
▁straw	-6103
▁altern	-6104
▁season	-6105
▁complicated	-6106
mony	-6107
▁leo	-6108
▁vic	-6109
▁barb	-6110
▁fade	-6111
▁visited	-6112
▁signific	-6113
▁alph	-6114
▁radi	-6115
▁surge	-6116
▁courty	-6117
▁highway	-6118
▁soothing	-6119
▁amelia	-6120
▁escort	-6121
▁transl	-6122
▁funeral	-6123
▁sideways	-6124
osing	-6125
▁agony	-6126
zie	-6127
▁twin	-6128
▁defeat	-6129
fy	-6130
▁jennifer	-6131
▁moonlight	-6132
▁staircase	-6133
▁blocked	-6134
▁neighborhood	-6135
▁andy	-6136
▁signed	-6137
▁manager	-6138
▁nicolas	-6139
▁preston	-6140
▁ceremony	-6141
▁necklace	-6142
iser	-6143
▁prior	-6144
▁highly	-6145
▁puzzled	-6146
▁concentrate	-6147
▁ox	-6148
that	-6149
vere	-6150
▁bust	-6151
▁growl	-6152
▁client	-6153
▁cooking	-6154
▁exchanged	-6155
hest	-6156
kins	-6157
▁samp	-6158
▁theory	-6159
▁pounded	-6160
▁dante	-6161
▁ought	-6162
▁sexual	-6163
▁acknowled	-6164
▁org	-6165
▁joey	-6166
▁homes	-6167
▁estate	-6168
▁virgin	-6169
▁successful	-6170
va	-6171
ension	-6172
▁booth	-6173
▁clung	-6174
▁string	-6175
▁exhaust	-6176
▁trembled	-6177
▁mi	-6178
▁yawn	-6179
▁attitude	-6180
▁structure	-6181
tail	-6182
umph	-6183
▁tipped	-6184
▁ached	-6185
▁folks	-6186
▁lands	-6187
▁shone	-6188
rist	-6189
▁gym	-6190
▁kinds	-6191
▁aye	-6192
▁cake	-6193
▁dragons	-6194
agan	-6195
▁allie	-6196
▁branch	-6197
▁foreign	-6198
▁sweetheart	-6199
sm	-6200
▁az	-6201
▁aust	-6202
▁sout	-6203
▁jonas	-6204
▁twisting	-6205
▁affection	-6206
▁jasm	-6207
▁lane	-6208
▁scow	-6209
▁brushing	-6210
▁naturally	-6211
gun	-6212
ste	-6213
▁bi	-6214
▁ped	-6215
▁aler	-6216
▁drops	-6217
▁encoun	-6218
▁torture	-6219
▁therefore	-6220
▁reck	-6221
▁knuck	-6222
▁cupped	-6223
▁smirked	-6224
▁occasionally	-6225
uri	-6226
▁mug	-6227
▁rey	-6228
▁leah	-6229
▁loaded	-6230
▁jessica	-6231
▁aching	-6232
▁magnus	-6233
▁resemb	-6234
antically	-6235
▁transport	-6236
▁cub	-6237
▁pete	-6238
▁accompan	-6239
▁snatched	-6240
▁unp	-6241
▁apple	-6242
▁mysterious	-6243
▁biting	-6244
▁engaged	-6245
▁routine	-6246
▁attractive	-6247
cel	-6248
ssa	-6249
rowed	-6250
▁bold	-6251
▁eddie	-6252
▁suffered	-6253
▁descended	-6254
etic	-6255
▁fork	-6256
▁needing	-6257
▁izzy	-6258
▁strip	-6259
▁physically	-6260
▁asse	-6261
▁plung	-6262
▁courtyard	-6263
▁backs	-6264
▁melan	-6265
▁sticking	-6266
▁separated	-6267
icy	-6268
idently	-6269
rer	-6270
ilet	-6271
▁violent	-6272
▁curtains	-6273
▁haz	-6274
▁unit	-6275
▁finds	-6276
▁travis	-6277
▁declared	-6278
vy	-6279
▁ending	-6280
▁worlds	-6281
▁drained	-6282
▁abilities	-6283
▁puts	-6284
▁salt	-6285
▁celest	-6286
▁famous	-6287
▁located	-6288
▁director	-6289
▁lisa	-6290
▁sarc	-6291
▁stroke	-6292
▁replace	-6293
▁require	-6294
▁tradition	-6295
▁icy	-6296
▁inse	-6297
▁pear	-6298
▁boring	-6299
▁issues	-6300
▁records	-6301
▁contempl	-6302
iable	-6303
▁eggs	-6304
▁ruby	-6305
▁arrog	-6306
▁curve	-6307
▁healthy	-6308
▁strangely	-6309
▁consciousness	-6310
▁jail	-6311
▁innoc	-6312
▁anthony	-6313
▁platform	-6314
▁preferred	-6315
▁linda	-6316
▁spite	-6317
▁curved	-6318
▁specific	-6319
keep	-6320
▁pra	-6321
▁ves	-6322
▁cleaned	-6323
▁spilled	-6324
▁basement	-6325
▁weakness	-6326
▁clutching	-6327
aph	-6328
▁privacy	-6329
▁science	-6330
cr	-6331
▁dared	-6332
▁steam	-6333
▁explosion	-6334
uary	-6335
▁brut	-6336
▁karen	-6337
▁assign	-6338
▁grandma	-6339
▁surprisingly	-6340
jah	-6341
▁anne	-6342
▁loos	-6343
▁planted	-6344
▁yelling	-6345
▁continues	-6346
▁gary	-6347
▁refuse	-6348
▁scowled	-6349
▁delivered	-6350
oh	-6351
lers	-6352
sized	-6353
▁bits	-6354
▁princ	-6355
▁eternity	-6356
▁nicholas	-6357
▁pinned	-6358
▁quarters	-6359
▁whispering	-6360
▁fleet	-6361
▁gloves	-6362
▁monsters	-6363
▁personally	-6364
▁lin	-6365
▁chic	-6366
▁pizz	-6367
▁sophia	-6368
▁servant	-6369
▁avoiding	-6370
▁greatest	-6371
▁intently	-6372
arse	-6373
▁meg	-6374
▁vik	-6375
▁dram	-6376
▁charm	-6377
▁latest	-6378
▁product	-6379
▁tearing	-6380
▁lifetime	-6381
▁zoe	-6382
▁sought	-6383
▁waters	-6384
▁dreamed	-6385
▁ringing	-6386
▁decisions	-6387
▁angle	-6388
▁kidna	-6389
▁manip	-6390
▁opens	-6391
▁talent	-6392
▁anxiety	-6393
▁efforts	-6394
▁gentleman	-6395
cony	-6396
ouch	-6397
▁crit	-6398
▁kyle	-6399
▁citiz	-6400
▁pilot	-6401
▁supply	-6402
▁wildly	-6403
▁reputation	-6404
▁overwhelming	-6405
tor	-6406
▁bald	-6407
▁daily	-6408
▁angrily	-6409
▁balcony	-6410
▁element	-6411
▁rounded	-6412
▁bark	-6413
▁tensed	-6414
gue	-6415
▁las	-6416
▁shed	-6417
▁nasty	-6418
▁employ	-6419
▁origin	-6420
▁example	-6421
▁prisoner	-6422
bal	-6423
▁slim	-6424
▁warn	-6425
▁mercy	-6426
▁hearts	-6427
▁newspaper	-6428
▁surroundings	-6429
▁kor	-6430
▁goal	-6431
▁huff	-6432
▁diego	-6433
▁katie	-6434
▁noble	-6435
▁twins	-6436
▁vincent	-6437
▁included	-6438
bell	-6439
▁jill	-6440
▁caring	-6441
▁secretary	-6442
▁spreading	-6443
▁hyp	-6444
▁arth	-6445
▁educ	-6446
▁wipe	-6447
▁blocks	-6448
▁activity	-6449
bow	-6450
ffin	-6451
▁cotton	-6452
▁laptop	-6453
isy	-6454
▁boun	-6455
▁calif	-6456
▁clever	-6457
▁photos	-6458
▁mattress	-6459
▁protecting	-6460
▁nu	-6461
attle	-6462
▁investigation	-6463
mark	-6464
overy	-6465
▁dwar	-6466
▁blushed	-6467
▁colonel	-6468
▁hunters	-6469
▁impressive	-6470
▁mcc	-6471
▁corn	-6472
▁subst	-6473
▁equally	-6474
▁popular	-6475
▁brightly	-6476
▁friendship	-6477
apes	-6478
▁veget	-6479
ittered	-6480
▁californ	-6481
▁immediate	-6482
▁miserable	-6483
▁yep	-6484
▁ryder	-6485
▁steep	-6486
▁stares	-6487
▁circled	-6488
▁waitress	-6489
▁flowed	-6490
▁heated	-6491
quar	-6492
▁dish	-6493
▁jasmine	-6494
▁aug	-6495
▁nad	-6496
▁melo	-6497
▁oblig	-6498
▁bounced	-6499
▁seeking	-6500
▁function	-6501
▁flickered	-6502
▁damon	-6503
▁sweater	-6504
▁crashing	-6505
▁sensitive	-6506
▁plates	-6507
▁instinctively	-6508
lished	-6509
▁cries	-6510
▁crushed	-6511
▁transfer	-6512
▁aur	-6513
▁brandon	-6514
▁chuckle	-6515
▁grimaced	-6516
▁regardless	-6517
▁frantically	-6518
shine	-6519
▁jude	-6520
▁troops	-6521
▁wiping	-6522
▁creating	-6523
▁currently	-6524
▁rit	-6525
aying	-6526
▁brace	-6527
▁serena	-6528
▁blowing	-6529
▁grasped	-6530
▁murdered	-6531
▁eva	-6532
▁tyler	-6533
▁decent	-6534
▁helmet	-6535
resh	-6536
▁kir	-6537
▁bern	-6538
▁bubb	-6539
natural	-6540
▁describe	-6541
▁exception	-6542
▁bomb	-6543
▁cases	-6544
▁taller	-6545
▁occupied	-6546
iron	-6547
osure	-6548
▁dick	-6549
▁goss	-6550
▁ladder	-6551
▁data	-6552
▁scree	-6553
▁joking	-6554
▁ragged	-6555
▁reaches	-6556
▁designed	-6557
▁flashlight	-6558
bi	-6559
▁eh	-6560
rees	-6561
▁curls	-6562
▁german	-6563
▁doctors	-6564
uish	-6565
ware	-6566
ideon	-6567
▁sons	-6568
▁tape	-6569
▁begging	-6570
▁handing	-6571
▁heather	-6572
▁distinct	-6573
▁invitation	-6574
hun	-6575
eday	-6576
immed	-6577
▁gideon	-6578
▁england	-6579
▁fortune	-6580
▁someday	-6581
▁gn	-6582
oning	-6583
▁adop	-6584
▁laws	-6585
▁creek	-6586
▁micro	-6587
▁persu	-6588
ulously	-6589
▁cottage	-6590
▁engage	-6591
▁journal	-6592
▁nipp	-6593
▁intrig	-6594
▁breasts	-6595
▁goddess	-6596
▁violence	-6597
▁indicated	-6598
▁arc	-6599
opher	-6600
▁locker	-6601
▁united	-6602
▁buttons	-6603
▁exhaled	-6604
▁examined	-6605
▁california	-6606
▁continuing	-6607
▁dag	-6608
▁misty	-6609
▁landsc	-6610
▁instructions	-6611
▁web	-6612
mates	-6613
▁stool	-6614
▁mentally	-6615
▁recalled	-6616
▁comforting	-6617
▁forb	-6618
▁unlocked	-6619
▁syd	-6620
▁impl	-6621
▁nope	-6622
▁finan	-6623
▁suite	-6624
▁amazed	-6625
▁gentlemen	-6626
unate	-6627
▁outer	-6628
▁dripping	-6629
pher	-6630
▁mik	-6631
▁aisle	-6632
▁exerc	-6633
▁helic	-6634
▁smash	-6635
▁maddie	-6636
▁floated	-6637
▁schedule	-6638
▁switched	-6639
▁ros	-6640
acles	-6641
▁flag	-6642
▁hurts	-6643
▁scary	-6644
▁results	-6645
ola	-6646
water	-6647
▁gang	-6648
▁glowed	-6649
▁tucker	-6650
▁majesty	-6651
▁peaceful	-6652
▁intelligence	-6653
▁determination	-6654
▁adri	-6655
▁sage	-6656
▁sore	-6657
▁sylv	-6658
▁inevit	-6659
▁vessel	-6660
▁central	-6661
▁flooded	-6662
▁fourteen	-6663
▁messages	-6664
▁tel	-6665
berry	-6666
▁elbows	-6667
▁slender	-6668
▁winkler	-6669
▁betrayed	-6670
▁appropriate	-6671
oy	-6672
▁hawk	-6673
▁rings	-6674
▁adding	-6675
▁colour	-6676
▁senior	-6677
▁destiny	-6678
▁underground	-6679
▁sull	-6680
▁jesse	-6681
▁spear	-6682
▁thirteen	-6683
▁controlled	-6684
▁deliberately	-6685
ula	-6686
▁ade	-6687
▁bend	-6688
▁assemb	-6689
ibilities	-6690
▁irritated	-6691
enth	-6692
▁atm	-6693
ission	-6694
▁value	-6695
iration	-6696
▁archer	-6697
▁clasped	-6698
▁awes	-6699
▁terr	-6700
▁worrying	-6701
▁described	-6702
mail	-6703
▁ankle	-6704
▁maria	-6705
▁chasing	-6706
indy	-6707
▁pig	-6708
▁empt	-6709
▁owen	-6710
▁pony	-6711
▁rene	-6712
▁sets	-6713
▁selfish	-6714
▁sinking	-6715
▁blankets	-6716
▁cautiously	-6717
while	-6718
▁kira	-6719
▁metho	-6720
▁pizza	-6721
iveness	-6722
▁limp	-6723
▁lump	-6724
▁smirk	-6725
▁toast	-6726
▁goodness	-6727
▁instructed	-6728
asses	-6729
▁ranch	-6730
▁shove	-6731
▁authority	-6732
two	-6733
inte	-6734
▁helicop	-6735
▁justice	-6736
▁reflected	-6737
▁questioned	-6738
▁lan	-6739
▁nan	-6740
▁wire	-6741
▁despair	-6742
▁eleanor	-6743
▁panties	-6744
▁fireplace	-6745
rad	-6746
antha	-6747
▁robin	-6748
▁shaft	-6749
▁smoot	-6750
▁callie	-6751
▁alongside	-6752
▁seemingly	-6753
▁reported	-6754
aron	-6755
▁dude	-6756
▁sofia	-6757
▁commit	-6758
▁europe	-6759
▁virt	-6760
▁traced	-6761
▁stiffened	-6762
ini	-6763
▁caf	-6764
▁holes	-6765
▁obliv	-6766
▁ashley	-6767
▁carter	-6768
▁railing	-6769
▁utterly	-6770
▁wan	-6771
aline	-6772
▁maya	-6773
▁options	-6774
isk	-6775
▁sten	-6776
▁molly	-6777
▁brings	-6778
▁tossing	-6779
▁notebook	-6780
▁protective	-6781
arked	-6782
▁dise	-6783
▁dipped	-6784
▁benefit	-6785
▁guardian	-6786
▁flee	-6787
▁nerve	-6788
ums	-6789
inged	-6790
▁mini	-6791
▁tale	-6792
▁indust	-6793
▁selena	-6794
▁awesome	-6795
▁counted	-6796
▁triumph	-6797
▁observed	-6798
▁squinted	-6799
ada	-6800
ainted	-6801
umpled	-6802
▁sorrow	-6803
▁fishing	-6804
▁softened	-6805
▁thankfully	-6806
▁myth	-6807
▁tries	-6808
▁dorian	-6809
▁pierce	-6810
▁pretended	-6811
▁doug	-6812
▁hudd	-6813
▁hatred	-6814
ological	-6815
▁avoided	-6816
▁py	-6817
▁ivy	-6818
▁scor	-6819
idents	-6820
▁atmosp	-6821
▁groups	-6822
▁princip	-6823
ez	-6824
iah	-6825
▁depths	-6826
▁rocked	-6827
▁exasper	-6828
▁stretching	-6829
mend	-6830
▁aly	-6831
▁jobs	-6832
retched	-6833
▁chains	-6834
▁prayed	-6835
▁prayer	-6836
▁measure	-6837
▁charming	-6838
▁hut	-6839
▁plu	-6840
▁emph	-6841
▁garb	-6842
▁sang	-6843
▁spit	-6844
▁explore	-6845
▁dressing	-6846
▁strained	-6847
▁sunshine	-6848
▁protested	-6849
▁bun	-6850
▁swell	-6851
▁damien	-6852
▁smells	-6853
▁shallow	-6854
▁commanded	-6855
▁increased	-6856
▁technology	-6857
▁kil	-6858
▁bron	-6859
▁lore	-6860
▁shaky	-6861
▁review	-6862
▁velvet	-6863
▁slamming	-6864
▁embarrassment	-6865
▁dove	-6866
▁avery	-6867
▁cheap	-6868
▁mitch	-6869
▁dishes	-6870
▁elijah	-6871
▁guitar	-6872
▁bullets	-6873
▁revenge	-6874
▁punishment	-6875
enses	-6876
▁paced	-6877
▁saint	-6878
▁belief	-6879
▁attempting	-6880
▁ded	-6881
▁flared	-6882
agers	-6883
ailed	-6884
▁legal	-6885
▁jonathan	-6886
▁noticing	-6887
alie	-6888
▁atl	-6889
▁kel	-6890
▁knot	-6891
▁areas	-6892
▁parties	-6893
▁immortal	-6894
▁steering	-6895
▁vacation	-6896
▁nak	-6897
▁prey	-6898
▁robot	-6899
▁trial	-6900
▁eb	-6901
▁intru	-6902
▁trash	-6903
▁gritted	-6904
▁stroking	-6905
▁treasure	-6906
tt	-6907
gra	-6908
▁overhe	-6909
▁striking	-6910
▁collected	-6911
▁viv	-6912
▁adren	-6913
▁sniffed	-6914
ification	-6915
▁ages	-6916
▁mont	-6917
▁obsc	-6918
▁stake	-6919
▁solution	-6920
ex	-6921
inate	-6922
▁nostr	-6923
▁formal	-6924
▁stable	-6925
▁amongst	-6926
▁feeding	-6927
▁adjusted	-6928
▁blocking	-6929
▁wrinkled	-6930
▁bothering	-6931
▁sacrifice	-6932
▁increasing	-6933
▁unre	-6934
▁crawl	-6935
▁pitch	-6936
▁victory	-6937
▁gripping	-6938
▁lighting	-6939
▁fortunately	-6940
▁talon	-6941
▁grounds	-6942
▁marched	-6943
▁purchase	-6944
enced	-6945
▁ador	-6946
▁scot	-6947
▁tips	-6948
▁subtle	-6949
▁sometime	-6950
▁collection	-6951
▁tack	-6952
▁aimed	-6953
▁tangled	-6954
▁painfully	-6955
▁seventeen	-6956
ja	-6957
▁bind	-6958
▁jean	-6959
▁lara	-6960
▁bless	-6961
▁bearing	-6962
▁knuckles	-6963
▁mistress	-6964
▁samantha	-6965
▁territory	-6966
▁conference	-6967
lie	-6968
nda	-6969
▁liv	-6970
▁bore	-6971
▁crush	-6972
▁fever	-6973
▁juice	-6974
▁sydney	-6975
▁elegant	-6976
tr	-6977
wear	-6978
▁jung	-6979
▁stan	-6980
▁poked	-6981
▁darker	-6982
▁reward	-6983
▁strate	-6984
▁ki	-6985
rose	-6986
▁draped	-6987
▁laying	-6988
▁patrol	-6989
▁soaked	-6990
▁chicago	-6991
▁forming	-6992
▁sandwich	-6993
▁afterward	-6994
▁realization	-6995
▁mex	-6996
▁heel	-6997
▁scoot	-6998
▁centre	-6999
▁exciting	-7000
lying	-7001
▁fading	-7002
▁inhaled	-7003
▁whirled	-7004
arian	-7005
olded	-7006
▁email	-7007
▁sorts	-7008
▁ensure	-7009
▁matching	-7010
▁teaching	-7011
▁duck	-7012
▁agents	-7013
▁intend	-7014
▁sipped	-7015
▁reflect	-7016
▁margaret	-7017
▁muse	-7018
▁louis	-7019
▁glaring	-7020
▁temperature	-7021
rop	-7022
▁spraw	-7023
▁arthur	-7024
▁empire	-7025
▁garion	-7026
▁leaders	-7027
▁muffled	-7028
▁daylight	-7029
▁swirling	-7030
▁electricity	-7031
uced	-7032
▁awe	-7033
inity	-7034
ollen	-7035
▁dess	-7036
▁zack	-7037
▁accur	-7038
▁degree	-7039
▁roughly	-7040
▁species	-7041
▁completed	-7042
vity	-7043
▁lid	-7044
▁bund	-7045
▁unse	-7046
▁elend	-7047
▁cavern	-7048
▁destination	-7049
▁shelf	-7050
▁conven	-7051
▁gazing	-7052
▁longing	-7053
▁interior	-7054
▁encounter	-7055
olo	-7056
anta	-7057
izzy	-7058
▁hugh	-7059
attery	-7060
▁basic	-7061
▁memor	-7062
▁angels	-7063
▁combat	-7064
▁limited	-7065
▁torment	-7066
▁trigger	-7067
▁terribly	-7068
▁dil	-7069
▁pave	-7070
▁cush	-7071
▁flip	-7072
▁rack	-7073
▁leads	-7074
▁blades	-7075
▁receive	-7076
▁sympathy	-7077
▁companions	-7078
alf	-7079
▁sped	-7080
▁labor	-7081
▁miche	-7082
▁roads	-7083
▁steven	-7084
▁national	-7085
▁recovered	-7086
rene	-7087
▁skyl	-7088
ervation	-7089
▁ware	-7090
▁annoy	-7091
▁ritual	-7092
▁toilet	-7093
▁transp	-7094
▁confirm	-7095
▁freaking	-7096
ables	-7097
▁squad	-7098
▁legend	-7099
▁parker	-7100
▁compass	-7101
▁swollen	-7102
▁gap	-7103
▁pend	-7104
▁pine	-7105
▁suic	-7106
▁hatch	-7107
▁title	-7108
▁repeat	-7109
▁absence	-7110
▁produced	-7111
▁visiting	-7112
▁que	-7113
redith	-7114
▁prick	-7115
▁stuart	-7116
▁uneasy	-7117
▁cameras	-7118
▁announce	-7119
▁madeline	-7120
▁scratched	-7121
▁ink	-7122
▁kara	-7123
▁leans	-7124
▁unhapp	-7125
▁initial	-7126
▁quality	-7127
▁meredith	-7128
▁francesca	-7129
char	-7130
▁masc	-7131
▁stor	-7132
▁oddly	-7133
▁wrest	-7134
▁pleaded	-7135
▁byron	-7136
▁megan	-7137
▁thanked	-7138
▁dreaming	-7139
▁adventure	-7140
zzie	-7141
▁luckily	-7142
▁nostrils	-7143
▁horrified	-7144
lee	-7145
sten	-7146
▁analy	-7147
▁mayor	-7148
▁songs	-7149
▁southern	-7150
bbie	-7151
inge	-7152
arded	-7153
▁plot	-7154
▁floors	-7155
▁joining	-7156
mod	-7157
▁hem	-7158
▁toe	-7159
▁erin	-7160
▁hooked	-7161
▁multip	-7162
▁dominic	-7163
▁matched	-7164
ela	-7165
▁pup	-7166
▁erup	-7167
headed	-7168
▁model	-7169
▁rights	-7170
▁politely	-7171
▁survival	-7172
ships	-7173
▁gage	-7174
▁philos	-7175
▁valent	-7176
isha	-7177
▁lav	-7178
▁aaron	-7179
▁arguing	-7180
▁choices	-7181
▁atmosphere	-7182
mie	-7183
rib	-7184
▁mim	-7185
ishop	-7186
enelle	-7187
▁maxim	-7188
▁beings	-7189
▁ashamed	-7190
▁mansion	-7191
▁grumbled	-7192
▁doz	-7193
▁forms	-7194
icted	-7195
▁choo	-7196
▁ours	-7197
atives	-7198
▁status	-7199
▁tempted	-7200
▁vaguely	-7201
▁overwhelmed	-7202
asant	-7203
▁elab	-7204
▁load	-7205
▁whim	-7206
▁candy	-7207
▁leaped	-7208
▁intimate	-7209
▁magazine	-7210
▁register	-7211
▁cassandra	-7212
▁momentarily	-7213
wed	-7214
omes	-7215
▁dane	-7216
▁meas	-7217
▁rows	-7218
▁salv	-7219
▁breed	-7220
▁slave	-7221
▁colored	-7222
▁witches	-7223
▁compound	-7224
▁judgment	-7225
▁maneu	-7226
▁reports	-7227
▁stained	-7228
▁prospect	-7229
▁lingering	-7230
▁reassuring	-7231
away	-7232
▁tin	-7233
▁wry	-7234
▁rein	-7235
icient	-7236
▁ellen	-7237
▁bottles	-7238
▁psychic	-7239
lad	-7240
▁ak	-7241
▁gh	-7242
▁atop	-7243
▁buying	-7244
▁muscular	-7245
▁polished	-7246
▁squeezing	-7247
▁amp	-7248
▁coin	-7249
▁blush	-7250
▁fairy	-7251
▁tasha	-7252
▁pounds	-7253
▁alexandra	-7254
▁automatically	-7255
ida	-7256
▁glit	-7257
▁pand	-7258
▁consp	-7259
▁glory	-7260
▁bonnie	-7261
▁neatly	-7262
▁granted	-7263
iona	-7264
▁congr	-7265
▁babies	-7266
▁dozens	-7267
ulations	-7268
▁related	-7269
▁snapping	-7270
▁twitched	-7271
▁gossip	-7272
▁humili	-7273
▁blurted	-7274
▁curiously	-7275
▁wandering	-7276
▁destruction	-7277
nic	-7278
▁guar	-7279
▁liza	-7280
▁suits	-7281
▁veron	-7282
▁barrel	-7283
▁demanding	-7284
▁tact	-7285
▁package	-7286
▁humanity	-7287
ulty	-7288
▁mck	-7289
words	-7290
▁flor	-7291
▁levi	-7292
▁zoey	-7293
▁darcy	-7294
▁panel	-7295
▁paran	-7296
▁tooth	-7297
owledge	-7298
▁severe	-7299
▁confront	-7300
▁settling	-7301
▁catherine	-7302
wyl	-7303
▁sixty	-7304
▁compre	-7305
▁samuel	-7306
▁unique	-7307
▁wasted	-7308
▁wishes	-7309
▁slightest	-7310
born	-7311
▁roger	-7312
▁player	-7313
▁gasping	-7314
▁flinched	-7315
usive	-7316
▁wigg	-7317
▁revel	-7318
▁toler	-7319
▁solemn	-7320
▁frantic	-7321
▁intimid	-7322
▁miracle	-7323
▁screwed	-7324
▁internet	-7325
▁operation	-7326
▁combination	-7327
▁pic	-7328
armed	-7329
worth	-7330
▁keen	-7331
▁soil	-7332
▁worries	-7333
▁approval	-7334
▁represent	-7335
▁strangers	-7336
umes	-7337
▁kin	-7338
▁****	-7339
▁buff	-7340
▁fulf	-7341
▁elise	-7342
▁argued	-7343
▁guided	-7344
▁candles	-7345
▁coughed	-7346
▁identity	-7347
▁smoothly	-7348
▁gradually	-7349
▁appointment	-7350
ws	-7351
▁ky	-7352
▁ker	-7353
▁shoe	-7354
wolves	-7355
▁alpha	-7356
▁calcul	-7357
▁insult	-7358
▁basically	-7359
▁fid	-7360
▁merc	-7361
action	-7362
itated	-7363
▁minor	-7364
▁blinking	-7365
▁instincts	-7366
cha	-7367
ivan	-7368
izes	-7369
omet	-7370
chief	-7371
▁instr	-7372
▁assure	-7373
▁pacing	-7374
▁penetr	-7375
▁philip	-7376
▁counting	-7377
oti	-7378
dged	-7379
▁spots	-7380
▁hopeless	-7381
▁jaenelle	-7382
nels	-7383
▁bushes	-7384
▁suspicion	-7385
istr	-7386
▁nons	-7387
▁slap	-7388
▁stif	-7389
▁bishop	-7390
▁border	-7391
▁exited	-7392
▁haunted	-7393
▁suggestion	-7394
omp	-7395
bone	-7396
▁jab	-7397
▁lets	-7398
▁bould	-7399
▁barked	-7400
▁plants	-7401
▁greeting	-7402
▁lingered	-7403
▁attracted	-7404
omy	-7405
shot	-7406
uten	-7407
▁rav	-7408
▁vest	-7409
▁execut	-7410
▁panting	-7411
▁thrilled	-7412
▁committed	-7413
▁interrupt	-7414
jam	-7415
itching	-7416
▁natalie	-7417
▁scratch	-7418
▁consumed	-7419
box	-7420
itty	-7421
▁ava	-7422
urned	-7423
▁statue	-7424
▁storage	-7425
▁assuming	-7426
tan	-7427
▁abo	-7428
▁los	-7429
▁sut	-7430
▁soup	-7431
▁distr	-7432
▁grade	-7433
▁cities	-7434
▁hammer	-7435
▁justin	-7436
▁nudged	-7437
▁outfit	-7438
▁sprang	-7439
▁influence	-7440
▁experiment	-7441
▁spy	-7442
▁acade	-7443
▁dwell	-7444
▁wisdom	-7445
▁failure	-7446
▁disaster	-7447
iger	-7448
▁rex	-7449
▁cups	-7450
▁evie	-7451
▁sale	-7452
▁fount	-7453
▁impul	-7454
▁rumors	-7455
▁thirst	-7456
▁lieuten	-7457
▁electron	-7458
▁facility	-7459
▁standard	-7460
▁developed	-7461
▁qual	-7462
▁files	-7463
▁gifts	-7464
▁expand	-7465
▁cabinet	-7466
▁valerie	-7467
▁temporary	-7468
▁blaz	-7469
▁jase	-7470
▁swip	-7471
▁rocky	-7472
▁adrian	-7473
▁pathetic	-7474
▁remarked	-7475
▁acknowledge	-7476
don	-7477
▁au	-7478
▁toy	-7479
aware	-7480
lette	-7481
▁recon	-7482
▁verity	-7483
▁serving	-7484
▁typical	-7485
phy	-7486
ardon	-7487
▁lunged	-7488
▁regarded	-7489
▁occasional	-7490
▁disappearing	-7491
quet	-7492
umber	-7493
▁mage	-7494
▁ramp	-7495
ounded	-7496
▁campus	-7497
▁peeked	-7498
▁congrat	-7499
▁adrenaline	-7500
▁cuff	-7501
▁sung	-7502
▁newly	-7503
▁oppon	-7504
▁phill	-7505
▁propped	-7506
▁hovering	-7507
▁conversations	-7508
bot	-7509
▁lexi	-7510
keeper	-7511
▁filth	-7512
▁devast	-7513
▁anytime	-7514
▁eagerly	-7515
▁advanced	-7516
▁complain	-7517
▁stealing	-7518
▁dip	-7519
▁rolls	-7520
▁tribe	-7521
▁explaining	-7522
etan	-7523
mind	-7524
▁glist	-7525
▁scars	-7526
▁resour	-7527
▁environ	-7528
▁eyelids	-7529
▁peering	-7530
ista	-7531
▁lion	-7532
▁maddy	-7533
▁affair	-7534
▁braced	-7535
▁juliet	-7536
▁sealed	-7537
▁werewolves	-7538
▁frightening	-7539
▁curt	-7540
▁gret	-7541
▁melanie	-7542
▁monitor	-7543
▁tas	-7544
▁deer	-7545
▁texas	-7546
▁wreck	-7547
▁annoying	-7548
▁vehicles	-7549
▁landscape	-7550
▁possession	-7551
ishly	-7552
▁wary	-7553
▁diana	-7554
▁krist	-7555
▁hopped	-7556
▁sincere	-7557
▁reminding	-7558
▁helicopter	-7559
▁accompanied	-7560
hu	-7561
alian	-7562
isher	-7563
▁dougl	-7564
▁healed	-7565
▁fantasy	-7566
itors	-7567
▁awak	-7568
▁topic	-7569
▁trent	-7570
▁ghosts	-7571
▁needle	-7572
▁political	-7573
▁desperation	-7574
ovan	-7575
▁coup	-7576
▁kend	-7577
▁scur	-7578
▁assault	-7579
▁russian	-7580
▁encourage	-7581
▁mes	-7582
▁mock	-7583
▁mour	-7584
▁sasha	-7585
▁breaks	-7586
▁francis	-7587
▁isabella	-7588
▁concentrated	-7589
▁anch	-7590
▁janet	-7591
▁trous	-7592
▁wizard	-7593
▁douglas	-7594
▁lucivar	-7595
ddy	-7596
▁fest	-7597
▁kels	-7598
▁sandy	-7599
▁panicked	-7600
▁witnessed	-7601
▁breathless	-7602
▁bee	-7603
chant	-7604
iders	-7605
▁cuts	-7606
▁stam	-7607
ifully	-7608
▁shelves	-7609
▁ec	-7610
▁dash	-7611
▁flush	-7612
▁hoarse	-7613
mes	-7614
mine	-7615
▁lon	-7616
▁crawling	-7617
li	-7618
▁sob	-7619
▁minim	-7620
▁mighty	-7621
▁article	-7622
▁strands	-7623
▁violently	-7624
▁equal	-7625
▁british	-7626
▁divorce	-7627
see	-7628
▁rabbit	-7629
▁tugging	-7630
▁steadily	-7631
▁construction	-7632
ader	-7633
▁bax	-7634
▁bew	-7635
▁cade	-7636
▁cler	-7637
▁theo	-7638
▁grind	-7639
▁inher	-7640
▁corpse	-7641
▁portal	-7642
▁imagining	-7643
▁presented	-7644
unks	-7645
▁alf	-7646
itute	-7647
▁smug	-7648
▁bobby	-7649
▁smashed	-7650
▁western	-7651
▁stark	-7652
colored	-7653
▁launched	-7654
▁machines	-7655
▁sparkling	-7656
▁disag	-7657
▁media	-7658
▁urged	-7659
▁ankles	-7660
▁shouts	-7661
arre	-7662
ooled	-7663
▁rusty	-7664
▁arrows	-7665
▁barrier	-7666
▁lighter	-7667
▁isabelle	-7668
▁prisoners	-7669
add	-7670
uable	-7671
▁keith	-7672
▁overt	-7673
istered	-7674
▁noises	-7675
▁apology	-7676
▁freezing	-7677
iar	-7678
shit	-7679
▁bik	-7680
▁grabs	-7681
▁spray	-7682
▁channel	-7683
▁tapping	-7684
▁withdrew	-7685
▁bang	-7686
▁bush	-7687
▁fuel	-7688
▁ribb	-7689
▁zeus	-7690
▁austin	-7691
▁coward	-7692
▁mister	-7693
▁replies	-7694
▁generally	-7695
▁permanent	-7696
▁staggered	-7697
▁stephanie	-7698
▁aer	-7699
▁ara	-7700
▁tube	-7701
▁felix	-7702
▁lance	-7703
▁prime	-7704
▁weary	-7705
▁dennis	-7706
▁fridge	-7707
▁injuries	-7708
zo	-7709
nan	-7710
▁nash	-7711
▁sack	-7712
icated	-7713
▁amaze	-7714
▁greed	-7715
▁plunged	-7716
▁mistakes	-7717
▁stripped	-7718
▁underwear	-7719
▁christopher	-7720
uming	-7721
▁dall	-7722
▁august	-7723
▁invite	-7724
▁deserted	-7725
▁drifting	-7726
▁suitcase	-7727
▁transform	-7728
▁orb	-7729
▁suv	-7730
eared	-7731
▁ezio	-7732
▁grat	-7733
▁heir	-7734
▁fifth	-7735
▁clients	-7736
▁coincidence	-7737
▁consequences	-7738
▁oo	-7739
▁isol	-7740
▁marco	-7741
▁lizzie	-7742
▁guessing	-7743
▁pleading	-7744
▁fluttered	-7745
▁nightmares	-7746
▁heck	-7747
▁tommy	-7748
▁wheels	-7749
▁hastily	-7750
▁discussed	-7751
▁abe	-7752
leton	-7753
▁cure	-7754
▁grac	-7755
▁hits	-7756
▁trib	-7757
▁sports	-7758
▁clapped	-7759
▁smoking	-7760
▁winston	-7761
ribut	-7762
▁odds	-7763
▁limit	-7764
▁saetan	-7765
▁tunnels	-7766
▁victims	-7767
▁commented	-7768
▁telephone	-7769
▁environment	-7770
made	-7771
▁tag	-7772
▁curl	-7773
▁pent	-7774
▁soap	-7775
▁rapha	-7776
▁becomes	-7777
▁dresser	-7778
▁jewelry	-7779
▁madison	-7780
▁affected	-7781
▁nonsense	-7782
▁film	-7783
▁outs	-7784
▁burden	-7785
▁ticket	-7786
▁visitors	-7787
▁lieutenant	-7788
▁intelligent	-7789
▁thoughtfully	-7790
▁fires	-7791
▁bucket	-7792
▁knives	-7793
▁introduce	-7794
▁mit	-7795
▁belo	-7796
▁reed	-7797
▁deaths	-7798
▁jungle	-7799
▁potato	-7800
▁license	-7801
mel	-7802
▁od	-7803
▁yer	-7804
force	-7805
stick	-7806
▁clam	-7807
▁april	-7808
▁histor	-7809
▁quiver	-7810
▁fragile	-7811
▁lessons	-7812
▁magnific	-7813
▁superior	-7814
▁sweeping	-7815
▁troubled	-7816
▁population	-7817
▁distraction	-7818
uge	-7819
▁lyd	-7820
▁dump	-7821
▁tiss	-7822
▁stacy	-7823
▁beaten	-7824
▁winning	-7825
▁michelle	-7826
▁northern	-7827
▁dismissed	-7828
▁becky	-7829
▁cells	-7830
▁sanct	-7831
▁aboard	-7832
▁sparks	-7833
▁workers	-7834
▁baseball	-7835
▁reserved	-7836
▁sher	-7837
▁twir	-7838
▁thera	-7839
▁dumped	-7840
▁firing	-7841
▁tumbled	-7842
▁headache	-7843
▁surrender	-7844
xture	-7845
▁myst	-7846
▁seized	-7847
▁raphael	-7848
alia	-7849
ethe	-7850
itha	-7851
rell	-7852
▁ella	-7853
▁zero	-7854
▁disgu	-7855
uttered	-7856
▁melody	-7857
▁sucking	-7858
▁restless	-7859
▁finishing	-7860
▁enthusiasm	-7861
agne	-7862
face	-7863
▁owed	-7864
▁awoke	-7865
▁reece	-7866
▁tools	-7867
▁puzzle	-7868
together	-7869
▁erupted	-7870
▁services	-7871
▁impatient	-7872
▁washington	-7873
epend	-7874
ician	-7875
▁sawyer	-7876
▁knights	-7877
▁medicine	-7878
▁minister	-7879
▁decorated	-7880
▁conclusion	-7881
imer	-7882
▁jem	-7883
▁excl	-7884
▁foul	-7885
▁ambul	-7886
▁socks	-7887
▁creepy	-7888
▁strict	-7889
▁stalked	-7890
▁believing	-7891
▁precisely	-7892
▁shivering	-7893
ril	-7894
▁bic	-7895
▁clin	-7896
▁deaf	-7897
▁mead	-7898
▁lissa	-7899
▁deciding	-7900
▁ton	-7901
inent	-7902
▁menu	-7903
▁dwarf	-7904
▁roses	-7905
▁tempt	-7906
▁county	-7907
▁lashes	-7908
▁sloane	-7909
▁average	-7910
▁criminal	-7911
awk	-7912
uben	-7913
▁jeep	-7914
▁pond	-7915
ifying	-7916
rences	-7917
▁davis	-7918
▁facts	-7919
▁lilly	-7920
amiliar	-7921
▁ginger	-7922
▁welcom	-7923
▁kelsier	-7924
▁gleaming	-7925
▁horn	-7926
▁slick	-7927
▁spoon	-7928
▁disease	-7929
▁reacher	-7930
▁discussing	-7931
▁thoughtful	-7932
gas	-7933
oma	-7934
orse	-7935
▁rim	-7936
iments	-7937
▁afric	-7938
▁dusty	-7939
▁annwyl	-7940
▁calvin	-7941
▁effects	-7942
▁perched	-7943
▁swirled	-7944
▁aircraft	-7945
▁pavement	-7946
▁customers	-7947
▁reasonable	-7948
vey	-7949
▁bunk	-7950
▁june	-7951
▁stew	-7952
▁feast	-7953
▁torch	-7954
▁chased	-7955
▁caution	-7956
▁crimson	-7957
▁selling	-7958
urd	-7959
elie	-7960
▁curb	-7961
▁ridge	-7962
▁thorn	-7963
▁louisa	-7964
▁prepar	-7965
▁arriving	-7966
▁retreated	-7967
▁thoroughly	-7968
▁ko	-7969
▁oct	-7970
▁dealt	-7971
▁snugg	-7972
▁mouths	-7973
▁reuben	-7974
▁pillows	-7975
▁sleeves	-7976
▁disturbed	-7977
▁reluctant	-7978
▁intentions	-7979
ros	-7980
▁rigid	-7981
imately	-7982
▁testing	-7983
▁contrast	-7984
▁classroom	-7985
▁neighbors	-7986
▁bug	-7987
▁seld	-7988
▁shaped	-7989
▁shudder	-7990
▁assigned	-7991
tes	-7992
▁ny	-7993
lord	-7994
▁anc	-7995
▁phr	-7996
▁clust	-7997
▁dizzy	-7998
▁earned	-7999
▁elders	-8000
▁downtown	-8001
▁impatiently	-8002
▁tug	-8003
▁inquis	-8004
▁capture	-8005
▁donovan	-8006
▁madness	-8007
▁shoving	-8008
▁piercing	-8009
▁terrifying	-8010
iper	-8011
long	-8012
rors	-8013
▁nas	-8014
▁seal	-8015
▁crisp	-8016
▁murde	-8017
▁gained	-8018
▁fingern	-8019
▁iona	-8020
▁iris	-8021
▁dashed	-8022
▁complained	-8023
▁jed	-8024
▁pout	-8025
▁heaved	-8026
▁saddle	-8027
▁worthy	-8028
▁tabitha	-8029
▁angelina	-8030
▁abbey	-8031
▁conqu	-8032
▁unbel	-8033
▁andrea	-8034
▁dissol	-8035
▁mounted	-8036
▁stabbed	-8037
▁attempts	-8038
▁caressed	-8039
▁disturbing	-8040
des	-8041
power	-8042
riger	-8043
▁rats	-8044
▁whip	-8045
▁darren	-8046
▁crumpled	-8047
ties	-8048
▁bid	-8049
apers	-8050
chair	-8051
▁leon	-8052
▁blown	-8053
▁piled	-8054
▁nipple	-8055
▁propos	-8056
▁fiercely	-8057
▁refriger	-8058
▁personality	-8059
iva	-8060
lined	-8061
▁nause	-8062
▁slice	-8063
▁tales	-8064
▁unple	-8065
▁laurel	-8066
▁repair	-8067
▁sliced	-8068
▁champagne	-8069
enne	-8070
ipher	-8071
▁clip	-8072
lasses	-8073
ulting	-8074
▁sweep	-8075
ulating	-8076
▁huddled	-8077
▁independ	-8078
▁compassion	-8079
▁obe	-8080
▁flaw	-8081
▁irre	-8082
▁injury	-8083
▁online	-8084
▁loyalty	-8085
▁suicide	-8086
▁flickering	-8087
uits	-8088
▁bud	-8089
▁noon	-8090
▁pipe	-8091
▁laund	-8092
▁shred	-8093
▁towns	-8094
▁resort	-8095
▁wander	-8096
▁phillip	-8097
non	-8098
▁fare	-8099
▁attor	-8100
▁winds	-8101
▁capital	-8102
▁concept	-8103
▁rocking	-8104
▁exercise	-8105
▁annoyance	-8106
▁patiently	-8107
▁regarding	-8108
▁treatment	-8109
▁appreciated	-8110
▁gig	-8111
▁swam	-8112
▁helps	-8113
▁lydia	-8114
▁roots	-8115
▁lasted	-8116
▁hovered	-8117
▁skipped	-8118
▁assassin	-8119
▁distress	-8120
▁resistance	-8121
cies	-8122
▁lazy	-8123
▁admin	-8124
▁negoti	-8125
▁advance	-8126
▁damaged	-8127
▁generous	-8128
▁refusing	-8129
▁meanwhile	-8130
▁gust	-8131
ustomed	-8132
▁hyster	-8133
▁abandon	-8134
▁hesitate	-8135
▁trousers	-8136
▁motionless	-8137
**	-8138
▁jap	-8139
eight	-8140
▁scowl	-8141
▁waiter	-8142
▁backing	-8143
▁beloved	-8144
▁clinging	-8145
▁jealousy	-8146
▁inevitable	-8147
inese	-8148
▁cara	-8149
▁cargo	-8150
▁decades	-8151
▁shotgun	-8152
▁trailer	-8153
▁description	-8154
van	-8155
ilah	-8156
▁eag	-8157
guard	-8158
▁liar	-8159
▁slit	-8160
▁toll	-8161
▁whiskey	-8162
▁overcome	-8163
▁thankful	-8164
ilst	-8165
▁gau	-8166
▁wea	-8167
▁ming	-8168
ulsion	-8169
▁banks	-8170
▁fiona	-8171
▁supper	-8172
▁warmed	-8173
quarters	-8174
▁demonstr	-8175
▁millions	-8176
▁awkwardly	-8177
▁practical	-8178
▁differently	-8179
▁clare	-8180
▁manor	-8181
▁mouse	-8182
▁emphas	-8183
▁framed	-8184
▁gravel	-8185
▁clarity	-8186
▁guarded	-8187
▁exhaustion	-8188
ahl	-8189
rim	-8190
icia	-8191
vest	-8192
▁bin	-8193
faced	-8194
ooping	-8195
▁grunt	-8196
▁illeg	-8197
▁logic	-8198
▁inward	-8199
▁museum	-8200
▁surviv	-8201
▁dresses	-8202
▁involve	-8203
▁strolled	-8204
▁delighted	-8205
▁concentration	-8206
▁bump	-8207
▁tires	-8208
▁column	-8209
▁insides	-8210
▁inclined	-8211
▁welcomed	-8212
▁amazement	-8213
▁pump	-8214
▁subs	-8215
▁mandy	-8216
▁pencil	-8217
▁casting	-8218
▁portion	-8219
▁shorter	-8220
▁teenager	-8221
▁lam	-8222
▁vlad	-8223
▁bliss	-8224
▁scoff	-8225
▁ancest	-8226
▁orgasm	-8227
▁delilah	-8228
▁illusion	-8229
hot	-8230
iano	-8231
athed	-8232
uther	-8233
▁babe	-8234
▁bills	-8235
▁sting	-8236
▁tests	-8237
▁bolted	-8238
▁attacks	-8239
▁scooped	-8240
▁shuffled	-8241
▁stunning	-8242
▁melt	-8243
▁safer	-8244
▁offended	-8245
▁scanning	-8246
▁ambulance	-8247
pass	-8248
▁deli	-8249
bbling	-8250
engers	-8251
▁autumn	-8252
▁fiction	-8253
▁corrected	-8254
▁proceeded	-8255
▁orn	-8256
▁chad	-8257
▁lick	-8258
▁unst	-8259
▁angie	-8260
▁greek	-8261
▁pearl	-8262
▁recip	-8263
▁stalk	-8264
▁sworn	-8265
▁colton	-8266
▁declan	-8267
▁hauled	-8268
▁levels	-8269
▁grandpa	-8270
▁pierced	-8271
▁winding	-8272
▁reminder	-8273
▁paperwork	-8274
▁acknowledged	-8275
vas	-8276
hole	-8277
ills	-8278
▁bom	-8279
▁cane	-8280
▁haul	-8281
▁chand	-8282
▁daisy	-8283
theless	-8284
▁giggle	-8285
▁marian	-8286
▁chinese	-8287
▁hugging	-8288
▁streaming	-8289
▁additional	-8290
▁nevertheless	-8291
▁mm	-8292
itri	-8293
▁delay	-8294
▁foyer	-8295
▁kings	-8296
▁pauses	-8297
▁gravity	-8298
▁largest	-8299
▁praying	-8300
▁romance	-8301
▁unaware	-8302
▁defeated	-8303
▁hardened	-8304
▁forgetting	-8305
low	-8306
▁dex	-8307
▁seed	-8308
▁notion	-8309
▁passes	-8310
▁blinding	-8311
▁spilling	-8312
▁compliment	-8313
bag	-8314
nge	-8315
ria	-8316
▁cats	-8317
▁kenny	-8318
▁skept	-8319
▁freely	-8320
▁speaks	-8321
▁crooked	-8322
ani	-8323
ours	-8324
▁yel	-8325
▁grie	-8326
▁blunt	-8327
▁lords	-8328
▁skinny	-8329
▁wallet	-8330
▁bending	-8331
▁cookies	-8332
▁citizens	-8333
▁starving	-8334
▁attraction	-8335
omi	-8336
quis	-8337
▁hind	-8338
▁perf	-8339
▁rema	-8340
▁wool	-8341
▁accus	-8342
▁china	-8343
▁sighs	-8344
hearted	-8345
▁fountain	-8346
▁throbbing	-8347
ari	-8348
▁nah	-8349
▁hire	-8350
▁fluid	-8351
▁sales	-8352
▁blouse	-8353
▁bruises	-8354
▁governor	-8355
▁assignment	-8356
▁characters	-8357
▁importance	-8358
ipper	-8359
▁thud	-8360
▁tiff	-8361
usions	-8362
▁chewed	-8363
▁dallas	-8364
▁colling	-8365
▁pandora	-8366
▁vicious	-8367
▁partners	-8368
▁rational	-8369
▁valuable	-8370
▁blackness	-8371
▁tide	-8372
▁drain	-8373
▁shark	-8374
▁elliot	-8375
▁method	-8376
▁oldest	-8377
▁accepting	-8378
▁releasing	-8379
▁irritation	-8380
urt	-8381
▁artist	-8382
▁sunset	-8383
▁sighing	-8384
conscious	-8385
▁nell	-8386
▁zone	-8387
▁twink	-8388
▁cancer	-8389
▁shaken	-8390
▁echoing	-8391
▁envelop	-8392
▁reporter	-8393
▁originally	-8394
rod	-8395
▁alb	-8396
three	-8397
▁rena	-8398
▁ignor	-8399
▁layer	-8400
▁bewild	-8401
▁doubts	-8402
▁pushes	-8403
▁surged	-8404
aneously	-8405
▁arrogant	-8406
aste	-8407
yland	-8408
▁econ	-8409
▁nail	-8410
▁slipp	-8411
▁goddam	-8412
▁ponder	-8413
▁admired	-8414
▁rattled	-8415
▁removing	-8416
annon	-8417
▁dele	-8418
▁golf	-8419
▁mant	-8420
▁math	-8421
▁recom	-8422
▁resolve	-8423
▁systems	-8424
▁rank	-8425
▁baley	-8426
▁cares	-8427
▁coven	-8428
▁japan	-8429
▁jules	-8430
▁dammit	-8431
▁mobile	-8432
▁backyard	-8433
▁bouncing	-8434
▁kneeling	-8435
▁activities	-8436
bra	-8437
▁kol	-8438
▁joan	-8439
▁admire	-8440
▁angela	-8441
▁france	-8442
▁strain	-8443
▁constru	-8444
▁logical	-8445
▁visions	-8446
▁particip	-8447
▁warehouse	-8448
▁afterwards	-8449
pit	-8450
▁emper	-8451
▁imper	-8452
▁smack	-8453
▁tammy	-8454
▁studio	-8455
▁urgent	-8456
▁walter	-8457
▁explode	-8458
▁ripping	-8459
▁senator	-8460
▁financial	-8461
point	-8462
rical	-8463
▁roth	-8464
▁reject	-8465
▁savage	-8466
▁volume	-8467
▁helpful	-8468
▁crushing	-8469
▁disappro	-8470
▁elaborate	-8471
▁elsewhere	-8472
▁oblivious	-8473
apse	-8474
▁dur	-8475
▁tob	-8476
▁corin	-8477
▁recru	-8478
▁stove	-8479
▁whilst	-8480
▁temples	-8481
▁inviting	-8482
▁retrieved	-8483
wan	-8484
ceded	-8485
▁burns	-8486
▁femin	-8487
▁perry	-8488
▁relent	-8489
▁korsten	-8490
▁strings	-8491
▁fortress	-8492
▁multiple	-8493
▁shrieked	-8494
za	-8495
▁cem	-8496
opard	-8497
▁colt	-8498
▁leaf	-8499
▁dated	-8500
▁flare	-8501
▁pecul	-8502
▁dialed	-8503
▁shapes	-8504
▁objects	-8505
▁pausing	-8506
▁shifter	-8507
▁altogether	-8508
▁difficulty	-8509
yd	-8510
▁upd	-8511
▁barg	-8512
▁boats	-8513
entially	-8514
▁flicker	-8515
▁garbage	-8516
▁smashwords	-8517
▁sunglasses	-8518
▁unfamiliar	-8519
▁magnificent	-8520
▁os	-8521
▁lew	-8522
ighed	-8523
▁lair	-8524
▁mira	-8525
▁writ	-8526
▁shops	-8527
▁wider	-8528
▁madame	-8529
▁simone	-8530
▁charges	-8531
▁sensing	-8532
▁concerns	-8533
▁dangling	-8534
▁communication	-8535
car	-8536
▁biz	-8537
▁neut	-8538
▁torso	-8539
▁assess	-8540
▁italian	-8541
run	-8542
▁unbe	-8543
mitted	-8544
▁gruff	-8545
▁exagger	-8546
▁laundry	-8547
▁mixture	-8548
gery	-8549
▁gil	-8550
▁pron	-8551
▁goods	-8552
▁slope	-8553
▁refrigerator	-8554
oen	-8555
zer	-8556
▁eg	-8557
▁conso	-8558
▁locks	-8559
▁numer	-8560
▁sobbing	-8561
▁bullshit	-8562
▁lowering	-8563
▁promises	-8564
tery	-8565
under	-8566
▁folk	-8567
▁eyeing	-8568
▁gerald	-8569
▁region	-8570
▁cheerful	-8571
▁unpleasant	-8572
oub	-8573
uman	-8574
▁chip	-8575
▁bubble	-8576
▁duties	-8577
▁interp	-8578
▁weakly	-8579
▁stephen	-8580
▁identify	-8581
▁attacking	-8582
▁philosoph	-8583
lit	-8584
robe	-8585
▁tire	-8586
▁conver	-8587
▁nation	-8588
▁eastern	-8589
▁purchased	-8590
▁shh	-8591
▁chey	-8592
▁rory	-8593
▁webs	-8594
▁fiery	-8595
▁jerry	-8596
▁curves	-8597
▁walker	-8598
▁dreamer	-8599
▁theater	-8600
▁overnight	-8601
▁embarrassing	-8602
yees	-8603
▁beds	-8604
▁fund	-8605
▁kait	-8606
▁grain	-8607
▁halls	-8608
▁terry	-8609
▁uncont	-8610
▁judging	-8611
▁erection	-8612
▁scarlett	-8613
▁unbeliev	-8614
▁education	-8615
alt	-8616
▁fuss	-8617
▁navy	-8618
imeter	-8619
master	-8620
▁blows	-8621
▁kathy	-8622
▁freeze	-8623
▁howard	-8624
▁factory	-8625
▁unhappy	-8626
▁comments	-8627
▁focusing	-8628
▁retorted	-8629
▁accustomed	-8630
▁awh	-8631
esday	-8632
flies	-8633
▁brew	-8634
▁proc	-8635
▁hazel	-8636
▁vivid	-8637
▁accused	-8638
▁choking	-8639
▁faintly	-8640
▁smoothed	-8641
▁accomplish	-8642
door	-8643
kind	-8644
outhed	-8645
▁brisk	-8646
▁danni	-8647
▁midst	-8648
▁beamed	-8649
▁linked	-8650
▁clamped	-8651
▁tuesday	-8652
▁combined	-8653
▁downward	-8654
▁addressed	-8655
▁countless	-8656
▁employees	-8657
▁pregnancy	-8658
bris	-8659
colm	-8660
enzie	-8661
▁liber	-8662
▁phoen	-8663
▁sunny	-8664
▁modest	-8665
▁achieve	-8666
▁heavens	-8667
▁arrested	-8668
▁retrieve	-8669
▁awareness	-8670
▁evidently	-8671
udge	-8672
▁brid	-8673
▁dies	-8674
▁haze	-8675
▁troy	-8676
▁dazed	-8677
▁larry	-8678
▁outst	-8679
▁overl	-8680
▁stung	-8681
▁buzzing	-8682
▁malcolm	-8683
▁betrayal	-8684
▁disgusted	-8685
▁shadowhun	-8686
▁significant	-8687
▁plo	-8688
▁confl	-8689
▁indul	-8690
▁meals	-8691
▁razor	-8692
▁suited	-8693
▁folding	-8694
▁tiffany	-8695
▁extraord	-8696
▁inspector	-8697
▁gin	-8698
▁roo	-8699
eland	-8700
▁aven	-8701
▁deput	-8702
▁swayed	-8703
▁blessed	-8704
▁opponent	-8705
▁sneaking	-8706
▁stumbling	-8707
mik	-8708
ota	-8709
was	-8710
augh	-8711
▁ath	-8712
▁taxi	-8713
▁misery	-8714
▁emerson	-8715
▁highest	-8716
▁teachers	-8717
cont	-8718
▁tut	-8719
▁ecst	-8720
ooling	-8721
▁pills	-8722
▁shack	-8723
▁shirts	-8724
aughters	-8725
▁acceler	-8726
▁lantern	-8727
▁players	-8728
▁retired	-8729
▁touches	-8730
▁disgusting	-8731
▁syn	-8732
rying	-8733
▁papa	-8734
▁pole	-8735
▁nadia	-8736
▁dimitri	-8737
▁choosing	-8738
irm	-8739
uted	-8740
▁fem	-8741
▁ric	-8742
unken	-8743
▁inex	-8744
▁obst	-8745
▁sche	-8746
▁ledge	-8747
▁telep	-8748
▁awhile	-8749
▁denied	-8750
▁lounge	-8751
▁messed	-8752
▁proven	-8753
▁gregori	-8754
▁strapped	-8755
▁celebrate	-8756
▁concluded	-8757
▁discovery	-8758
▁valentine	-8759
uk	-8760
cery	-8761
▁fee	-8762
▁oxy	-8763
▁calmed	-8764
▁discon	-8765
▁scenar	-8766
▁bizarre	-8767
▁excitedly	-8768
▁fantastic	-8769
six	-8770
▁pose	-8771
nesday	-8772
▁messy	-8773
▁reyes	-8774
▁beasts	-8775
▁jagged	-8776
▁spells	-8777
▁tended	-8778
▁ponytail	-8779
▁tortured	-8780
▁trusting	-8781
▁unlikely	-8782
▁apprehens	-8783
▁josephine	-8784
lim	-8785
etta	-8786
▁scul	-8787
handed	-8788
▁marty	-8789
▁paths	-8790
▁puppy	-8791
▁schol	-8792
▁sober	-8793
▁sticks	-8794
▁lecture	-8795
▁commission	-8796
ala	-8797
ivity	-8798
ppers	-8799
▁shay	-8800
▁sust	-8801
▁micha	-8802
▁darmik	-8803
▁thumbs	-8804
▁celeste	-8805
▁demands	-8806
▁elderly	-8807
▁gardens	-8808
▁licking	-8809
▁mocking	-8810
▁variety	-8811
▁creeping	-8812
▁marshall	-8813
▁meetings	-8814
▁patients	-8815
▁partially	-8816
▁officially	-8817
ador	-8818
▁bren	-8819
asions	-8820
▁depos	-8821
▁strap	-8822
▁resent	-8823
▁summon	-8824
▁depends	-8825
▁emperor	-8826
▁proudly	-8827
▁possibilities	-8828
eped	-8829
▁bury	-8830
▁eden	-8831
▁cemet	-8832
▁delic	-8833
▁henri	-8834
▁lodge	-8835
▁ninet	-8836
▁ropes	-8837
▁salad	-8838
oration	-8839
▁commer	-8840
▁regina	-8841
▁curling	-8842
▁handled	-8843
▁profile	-8844
▁secretly	-8845
▁referring	-8846
▁wednesday	-8847
▁convincing	-8848
lar	-8849
hail	-8850
▁amid	-8851
▁piano	-8852
▁cracks	-8853
▁picnic	-8854
▁prophe	-8855
▁cemetery	-8856
ito	-8857
▁cyn	-8858
▁dol	-8859
acity	-8860
shaped	-8861
▁sympat	-8862
▁examine	-8863
▁immense	-8864
▁lurched	-8865
▁countered	-8866
▁determine	-8867
▁performance	-8868
angle	-8869
▁rans	-8870
▁ronan	-8871
▁improve	-8872
▁absently	-8873
▁tracking	-8874
▁defensive	-8875
▁assistance	-8876
▁recognition	-8877
▁technically	-8878
net	-8879
▁sty	-8880
▁vas	-8881
lance	-8882
▁root	-8883
▁ross	-8884
▁tune	-8885
istent	-8886
▁chart	-8887
▁mused	-8888
unching	-8889
▁grimly	-8890
▁partly	-8891
▁bye	-8892
▁das	-8893
▁nuts	-8894
▁ster	-8895
▁adele	-8896
▁bumped	-8897
▁phoenix	-8898
▁wealthy	-8899
zes	-8900
agon	-8901
▁chu	-8902
▁nut	-8903
▁chem	-8904
▁dome	-8905
▁heap	-8906
▁gloss	-8907
▁sibyl	-8908
▁snort	-8909
▁compar	-8910
▁gulped	-8911
▁liking	-8912
▁metall	-8913
▁trailing	-8914
▁unwilling	-8915
▁illuminated	-8916
essa	-8917
pses	-8918
▁fay	-8919
▁pudd	-8920
▁seam	-8921
▁troll	-8922
▁types	-8923
▁adults	-8924
▁desired	-8925
▁happier	-8926
▁humming	-8927
▁reacted	-8928
▁sensual	-8929
▁smacked	-8930
▁internal	-8931
▁regretted	-8932
▁encouraged	-8933
arn	-8934
igail	-8935
▁arou	-8936
▁debt	-8937
▁exec	-8938
▁geoff	-8939
▁norman	-8940
▁thrill	-8941
▁viktor	-8942
▁cringed	-8943
▁marrying	-8944
▁mistaken	-8945
▁engagement	-8946
oken	-8947
▁alc	-8948
▁rus	-8949
▁cron	-8950
▁mair	-8951
▁dates	-8952
▁gaping	-8953
▁napkin	-8954
▁prompt	-8955
▁abigail	-8956
▁cousins	-8957
▁hunched	-8958
▁session	-8959
▁shuttle	-8960
▁collapse	-8961
▁furiously	-8962
▁positioned	-8963
▁anticipated	-8964
▁expressions	-8965
sea	-8966
yers	-8967
▁cul	-8968
▁cran	-8969
▁appet	-8970
▁boone	-8971
▁navig	-8972
▁brighter	-8973
▁escaping	-8974
▁scientist	-8975
▁clerk	-8976
▁gaped	-8977
▁brains	-8978
▁brutal	-8979
▁debris	-8980
▁powder	-8981
▁sphere	-8982
▁earnest	-8983
▁fitting	-8984
▁georgie	-8985
▁mikhail	-8986
▁pinched	-8987
▁furrowed	-8988
▁anxiously	-8989
▁departure	-8990
▁suspiciously	-8991
wr	-8992
▁tren	-8993
▁refuge	-8994
▁sweaty	-8995
▁roaring	-8996
▁cautious	-8997
▁relatively	-8998
▁repeatedly	-8999
ays	-9000
fits	-9001
white	-9002
▁dign	-9003
▁encl	-9004
▁fran	-9005
▁robes	-9006
▁discip	-9007
▁aggress	-9008
▁tripped	-9009
▁sanctuary	-9010
▁welcoming	-9011
▁bible	-9012
▁bites	-9013
▁squat	-9014
▁weigh	-9015
▁oxygen	-9016
▁tested	-9017
▁comprom	-9018
▁disturb	-9019
▁rumbled	-9020
▁secured	-9021
▁daughters	-9022
▁identical	-9023
▁outstretched	-9024
arer	-9025
▁axe	-9026
▁dub	-9027
▁fae	-9028
▁evel	-9029
▁jumps	-9030
▁lyght	-9031
▁tiger	-9032
▁aspect	-9033
▁cracking	-9034
▁delivery	-9035
▁meantime	-9036
iffe	-9037
oses	-9038
wing	-9039
▁fbi	-9040
▁elim	-9041
▁fans	-9042
▁edwin	-9043
▁eerie	-9044
▁solar	-9045
▁favour	-9046
▁leslie	-9047
▁rubber	-9048
▁scroll	-9049
▁seduct	-9050
▁strand	-9051
▁stormed	-9052
▁feathers	-9053
▁shocking	-9054
occ	-9055
▁ii	-9056
othy	-9057
▁asp	-9058
▁conj	-9059
▁cust	-9060
▁walt	-9061
▁chant	-9062
▁dense	-9063
▁goose	-9064
▁scarf	-9065
▁absurd	-9066
▁jackie	-9067
▁bruised	-9068
▁forearm	-9069
▁district	-9070
▁explains	-9071
▁relaxing	-9072
▁stirring	-9073
▁computers	-9074
▁correctly	-9075
▁genuinely	-9076
▁religious	-9077
▁resources	-9078
▁fet	-9079
▁gum	-9080
agues	-9081
amble	-9082
uffed	-9083
▁carn	-9084
▁basis	-9085
▁campa	-9086
▁irish	-9087
▁shine	-9088
▁simult	-9089
▁blazing	-9090
▁offices	-9091
▁glorious	-9092
▁appearing	-9093
laim	-9094
▁aub	-9095
▁ivan	-9096
▁sunk	-9097
giving	-9098
▁coord	-9099
▁crest	-9100
▁nikki	-9101
ciously	-9102
▁fumbled	-9103
▁surreal	-9104
▁conflict	-9105
▁document	-9106
his	-9107
▁ul	-9108
bits	-9109
▁thy	-9110
▁unb	-9111
▁lend	-9112
▁mold	-9113
▁sequ	-9114
▁barre	-9115
▁penny	-9116
▁sonia	-9117
▁lucian	-9118
▁sleepy	-9119
▁resumed	-9120
▁franklin	-9121
▁lifeless	-9122
iro	-9123
▁ruff	-9124
ologet	-9125
raging	-9126
▁depend	-9127
▁shades	-9128
▁stance	-9129
▁warily	-9130
▁emerald	-9131
▁engines	-9132
▁paintings	-9133
life	-9134
mble	-9135
▁mau	-9136
▁ned	-9137
piece	-9138
▁flav	-9139
▁fetch	-9140
▁infin	-9141
▁scout	-9142
▁suspe	-9143
▁foster	-9144
▁junior	-9145
▁luther	-9146
▁whistle	-9147
▁attorney	-9148
▁metallic	-9149
▁peculiar	-9150
▁displayed	-9151
▁insurance	-9152
▁conditions	-9153
▁swallowing	-9154
▁unfortunate	-9155
▁gag	-9156
▁adds	-9157
▁item	-9158
illion	-9159
▁eagle	-9160
▁mound	-9161
▁obser	-9162
▁fantas	-9163
ountered	-9164
▁traitor	-9165
▁withdraw	-9166
▁headlights	-9167
▁arrangements	-9168
arms	-9169
rons	-9170
▁daw	-9171
▁fen	-9172
ergus	-9173
▁pige	-9174
▁claud	-9175
ressing	-9176
▁rounds	-9177
▁unison	-9178
▁applied	-9179
▁confess	-9180
▁predict	-9181
▁indicating	-9182
▁encountered	-9183
▁anti	-9184
▁dahl	-9185
▁flir	-9186
▁knox	-9187
▁sobs	-9188
itches	-9189
▁chips	-9190
▁coins	-9191
▁solve	-9192
▁timing	-9193
▁billion	-9194
▁stacked	-9195
▁escorted	-9196
▁numerous	-9197
▁receiver	-9198
▁performed	-9199
▁residence	-9200
▁confession	-9201
▁headquarters	-9202
adel	-9203
▁lame	-9204
▁filthy	-9205
▁invent	-9206
▁console	-9207
▁corinne	-9208
▁packing	-9209
▁speaker	-9210
▁circling	-9211
▁christine	-9212
▁requested	-9213
▁rash	-9214
▁royce	-9215
▁whimp	-9216
▁genius	-9217
▁longed	-9218
▁accommod	-9219
▁resisted	-9220
▁establish	-9221
▁overheard	-9222
ryn	-9223
▁cue	-9224
▁tad	-9225
▁junk	-9226
▁whoa	-9227
herent	-9228
▁tease	-9229
▁teddy	-9230
astered	-9231
▁pursed	-9232
▁zombie	-9233
▁honesty	-9234
▁interfe	-9235
▁locking	-9236
▁angelica	-9237
▁harrison	-9238
▁examining	-9239
▁fi	-9240
▁jokes	-9241
▁picks	-9242
▁bac	-9243
▁peer	-9244
▁joked	-9245
▁prize	-9246
▁ruler	-9247
▁simpl	-9248
▁spill	-9249
▁tipto	-9250
▁wield	-9251
covered	-9252
▁carlos	-9253
▁engulf	-9254
▁sticky	-9255
▁bedside	-9256
▁cursing	-9257
▁interrog	-9258
▁fascinated	-9259
▁celebration	-9260
apor	-9261
iner	-9262
zzle	-9263
▁carr	-9264
▁print	-9265
▁virus	-9266
▁neared	-9267
▁retire	-9268
▁compart	-9269
▁extract	-9270
▁competition	-9271
▁relationships	-9272
kel	-9273
wal	-9274
lets	-9275
▁venge	-9276
▁harper	-9277
ifically	-9278
▁hopeful	-9279
▁sarcasm	-9280
▁stilled	-9281
▁positions	-9282
▁discomfort	-9283
▁passengers	-9284
▁vom	-9285
lands	-9286
▁vote	-9287
boards	-9288
▁groom	-9289
▁micah	-9290
▁phones	-9291
▁shrugs	-9292
▁stores	-9293
▁charity	-9294
▁seventy	-9295
▁courtney	-9296
ups	-9297
▁gan	-9298
▁drama	-9299
▁daring	-9300
▁blurred	-9301
▁follows	-9302
hea	-9303
hou	-9304
lon	-9305
hire	-9306
front	-9307
▁canvas	-9308
▁carrie	-9309
▁insect	-9310
▁launch	-9311
▁pardon	-9312
▁grayson	-9313
▁absorbed	-9314
▁attended	-9315
▁awakened	-9316
blood	-9317
icans	-9318
▁oath	-9319
▁tool	-9320
▁alike	-9321
▁tones	-9322
▁conrad	-9323
▁intact	-9324
▁overly	-9325
▁sandra	-9326
▁sobbed	-9327
▁blasted	-9328
▁cafeter	-9329
▁conspir	-9330
▁counsel	-9331
▁descend	-9332
▁frankly	-9333
▁perfection	-9334
▁accidentally	-9335
fly	-9336
otes	-9337
rend	-9338
▁bou	-9339
▁pel	-9340
▁barte	-9341
▁cowboy	-9342
▁exquis	-9343
▁indian	-9344
▁layers	-9345
▁mascul	-9346
▁academy	-9347
▁studies	-9348
▁negative	-9349
▁confessed	-9350
▁shimmering	-9351
▁mig	-9352
igner	-9353
▁alix	-9354
▁aura	-9355
▁flex	-9356
▁pall	-9357
▁soda	-9358
ursday	-9359
▁attic	-9360
▁flatt	-9361
▁nephe	-9362
▁olive	-9363
▁union	-9364
▁openly	-9365
▁flashes	-9366
▁guarant	-9367
▁feminine	-9368
▁startling	-9369
gic	-9370
hin	-9371
▁nam	-9372
▁cudd	-9373
▁inhab	-9374
▁slack	-9375
▁sleek	-9376
▁keller	-9377
▁theirs	-9378
▁adopted	-9379
▁flipping	-9380
▁thursday	-9381
▁cafeteria	-9382
▁succeeded	-9383
atch	-9384
hawk	-9385
ienne	-9386
▁gren	-9387
▁pupp	-9388
▁tops	-9389
▁mommy	-9390
▁randy	-9391
▁kindly	-9392
▁luxury	-9393
▁sylvia	-9394
▁unseen	-9395
▁evident	-9396
▁weighed	-9397
▁battered	-9398
▁development	-9399
rak	-9400
onym	-9401
▁pod	-9402
▁mars	-9403
▁obed	-9404
akable	-9405
▁georg	-9406
▁vital	-9407
▁belgar	-9408
▁kellan	-9409
▁slaves	-9410
▁drowned	-9411
▁scraped	-9412
▁surgery	-9413
▁wasting	-9414
▁campaign	-9415
▁colorful	-9416
aena	-9417
▁goo	-9418
▁cora	-9419
▁evol	-9420
▁luna	-9421
▁rosa	-9422
▁edged	-9423
▁males	-9424
▁motiv	-9425
▁ricky	-9426
▁wrink	-9427
▁miriam	-9428
▁regain	-9429
▁robots	-9430
▁rumble	-9431
▁grocery	-9432
▁include	-9433
▁jacques	-9434
▁comprehe	-9435
▁embraced	-9436
▁shutting	-9437
▁composure	-9438
▁lac	-9439
▁dale	-9440
▁deme	-9441
▁lill	-9442
▁obey	-9443
▁rect	-9444
▁casey	-9445
▁anchor	-9446
▁implic	-9447
▁kitten	-9448
▁chewing	-9449
▁returns	-9450
▁gesturing	-9451
ested	-9452
prints	-9453
▁bloss	-9454
▁momma	-9455
▁agency	-9456
▁limits	-9457
▁offers	-9458
▁produce	-9459
▁summoned	-9460
▁guarantee	-9461
▁passionate	-9462
▁registered	-9463
▁situations	-9464
urg	-9465
▁dna	-9466
▁gord	-9467
▁lush	-9468
▁monk	-9469
▁diner	-9470
▁scale	-9471
▁swive	-9472
▁mercer	-9473
▁scarce	-9474
▁silhou	-9475
▁tricks	-9476
▁degrees	-9477
▁leaping	-9478
▁copyright	-9479
child	-9480
▁bugs	-9481
▁leth	-9482
▁orph	-9483
▁silky	-9484
▁absent	-9485
▁bernard	-9486
▁scoffed	-9487
▁tickets	-9488
▁dramatic	-9489
▁patterns	-9490
▁forbidden	-9491
▁willingly	-9492
▁basketball	-9493
▁void	-9494
▁cheyenne	-9495
▁perspect	-9496
igan	-9497
oped	-9498
rial	-9499
▁dus	-9500
green	-9501
▁lass	-9502
▁stray	-9503
▁jewels	-9504
▁owners	-9505
▁eternal	-9506
▁stomped	-9507
▁disagree	-9508
▁veronica	-9509
▁kidnapped	-9510
▁hoo	-9511
ester	-9512
▁santa	-9513
▁talks	-9514
▁vegas	-9515
▁mesmer	-9516
▁tissue	-9517
▁upside	-9518
▁illegal	-9519
▁zombies	-9520
▁tightening	-9521
▁si	-9522
riet	-9523
ppled	-9524
▁aval	-9525
▁chim	-9526
▁cove	-9527
▁kent	-9528
▁omin	-9529
▁unde	-9530
▁dryly	-9531
▁score	-9532
▁bethan	-9533
▁crowds	-9534
▁extent	-9535
▁huffed	-9536
▁rocket	-9537
▁stride	-9538
▁apologet	-9539
▁imprison	-9540
▁kindness	-9541
▁sprinted	-9542
▁messenger	-9543
▁revolution	-9544
ko	-9545
sett	-9546
▁gor	-9547
▁prud	-9548
▁zeke	-9549
▁crick	-9550
▁grins	-9551
▁gross	-9552
▁initi	-9553
▁rober	-9554
reshold	-9555
▁blankly	-9556
▁shannon	-9557
▁believes	-9558
▁inquired	-9559
▁shifters	-9560
▁threshold	-9561
▁supernatural	-9562
ode	-9563
fted	-9564
ogue	-9565
▁acid	-9566
▁broo	-9567
▁cant	-9568
▁kath	-9569
▁noel	-9570
▁reapp	-9571
▁spike	-9572
▁banged	-9573
▁borrow	-9574
▁copper	-9575
▁legion	-9576
▁native	-9577
etheless	-9578
▁cradled	-9579
▁menacing	-9580
▁sprawled	-9581
▁gratitude	-9582
▁encouraging	-9583
▁nonetheless	-9584
▁sly	-9585
ishes	-9586
itect	-9587
▁corr	-9588
▁eman	-9589
▁karl	-9590
▁brass	-9591
▁lyssa	-9592
▁consci	-9593
▁sacred	-9594
▁drunken	-9595
▁effective	-9596
▁occasions	-9597
▁hesitantly	-9598
▁fingernails	-9599
▁om	-9600
▁brim	-9601
▁optim	-9602
▁ceased	-9603
▁lining	-9604
▁harness	-9605
▁neutral	-9606
▁outrage	-9607
▁painter	-9608
▁homework	-9609
▁pictured	-9610
▁architect	-9611
▁spiritwind	-9612
rus	-9613
▁va	-9614
jose	-9615
oman	-9616
urred	-9617
▁danc	-9618
▁dani	-9619
▁kinc	-9620
▁taut	-9621
▁admir	-9622
▁thump	-9623
▁woken	-9624
▁behalf	-9625
▁visual	-9626
▁posture	-9627
▁teenage	-9628
▁alliance	-9629
▁anderson	-9630
▁arrangement	-9631
anne	-9632
maid	-9633
ught	-9634
▁gaw	-9635
▁rug	-9636
inder	-9637
▁hilt	-9638
▁skip	-9639
▁vain	-9640
shield	-9641
josephe	-9642
▁hunted	-9643
▁raging	-9644
▁outline	-9645
▁reminds	-9646
▁swaying	-9647
▁bartender	-9648
▁uncomfortably	-9649
seat	-9650
they	-9651
▁chel	-9652
▁rumm	-9653
▁brady	-9654
▁lever	-9655
▁cherry	-9656
▁connie	-9657
▁halted	-9658
▁harbor	-9659
▁healer	-9660
▁sarene	-9661
▁melting	-9662
▁outward	-9663
▁tighten	-9664
▁visitor	-9665
▁reginald	-9666
▁spiritual	-9667
▁stairwell	-9668
▁investigate	-9669
▁nob	-9670
▁ende	-9671
▁jolt	-9672
▁knob	-9673
▁mare	-9674
▁reid	-9675
▁brood	-9676
▁glove	-9677
▁ruled	-9678
▁active	-9679
▁boston	-9680
▁seattle	-9681
▁tremble	-9682
▁infected	-9683
▁religion	-9684
▁glittering	-9685
▁rue	-9686
reens	-9687
seven	-9688
▁cate	-9689
▁loop	-9690
▁rebu	-9691
▁unne	-9692
ounted	-9693
▁alter	-9694
▁cindy	-9695
▁slung	-9696
▁undead	-9697
▁towering	-9698
▁destroying	-9699
▁maintained	-9700
▁uncontroll	-9701
▁accomplished	-9702
just	-9703
▁kam	-9704
▁ding	-9705
▁kier	-9706
▁mode	-9707
▁amara	-9708
▁andra	-9709
▁burnt	-9710
▁reins	-9711
▁trucks	-9712
▁cushion	-9713
▁greatly	-9714
▁kincaid	-9715
▁hurriedly	-9716
▁principal	-9717
▁previously	-9718
occup	-9719
▁rico	-9720
▁veil	-9721
▁exter	-9722
▁flirt	-9723
▁patio	-9724
▁stays	-9725
▁mexico	-9726
▁ninety	-9727
▁burnett	-9728
▁catches	-9729
▁costume	-9730
▁spanish	-9731
▁threats	-9732
▁siblings	-9733
▁scheduled	-9734
▁apologized	-9735
▁electronic	-9736
▁simultaneously	-9737
gthe	-9738
chell	-9739
filled	-9740
ouched	-9741
▁bacon	-9742
▁miller	-9743
▁punish	-9744
▁sentin	-9745
▁gleamed	-9746
▁urgency	-9747
▁chatting	-9748
▁majority	-9749
▁murderer	-9750
esc	-9751
▁pam	-9752
akers	-9753
▁ties	-9754
ambers	-9755
▁beams	-9756
▁diary	-9757
▁lifts	-9758
section	-9759
▁altair	-9760
▁butler	-9761
▁bellowed	-9762
▁creation	-9763
▁innocence	-9764
▁gel	-9765
▁peak	-9766
▁redd	-9767
minded	-9768
▁unbear	-9769
▁slowing	-9770
▁selected	-9771
▁briefcase	-9772
▁promising	-9773
▁sup	-9774
▁boom	-9775
▁dana	-9776
▁moss	-9777
▁semi	-9778
imated	-9779
▁motel	-9780
▁buzzed	-9781
▁cellar	-9782
▁proced	-9783
▁rebell	-9784
▁celaena	-9785
▁failing	-9786
▁lawyers	-9787
▁bracelet	-9788
▁indication	-9789
▁perspective	-9790
inde	-9791
reet	-9792
▁duff	-9793
▁ford	-9794
▁hiss	-9795
orters	-9796
▁ideal	-9797
▁parad	-9798
▁unner	-9799
▁dollar	-9800
▁hushed	-9801
▁heavier	-9802
▁sweating	-9803
▁scratching	-9804
▁connections	-9805
▁transformed	-9806
aina	-9807
aith	-9808
cons	-9809
▁sab	-9810
udged	-9811
▁agon	-9812
▁faye	-9813
▁lewis	-9814
▁carson	-9815
▁twitch	-9816
▁unsett	-9817
▁wilder	-9818
▁channie	-9819
▁sipping	-9820
▁surveyed	-9821
▁tempting	-9822
▁unnecess	-9823
sl	-9824
acious	-9825
▁layla	-9826
▁rosie	-9827
▁thief	-9828
▁traum	-9829
▁mainly	-9830
▁pirate	-9831
▁towers	-9832
▁marking	-9833
▁employee	-9834
▁specifically	-9835
pson	-9836
rolled	-9837
▁josef	-9838
▁lemon	-9839
▁alexia	-9840
▁lovers	-9841
▁pained	-9842
▁phrase	-9843
▁motorcy	-9844
▁referred	-9845
▁respected	-9846
▁fascinating	-9847
▁photographs	-9848
pert	-9849
▁closes	-9850
▁peeled	-9851
▁skyler	-9852
▁vivian	-9853
▁intrigued	-9854
▁generation	-9855
▁!!	-9856
▁pac	-9857
asted	-9858
uated	-9859
▁scal	-9860
▁craig	-9861
▁float	-9862
▁laced	-9863
▁ranks	-9864
▁griffin	-9865
▁sweetly	-9866
▁splashed	-9867
▁ultimate	-9868
ahn	-9869
▁flet	-9870
▁jade	-9871
istair	-9872
▁canop	-9873
▁husky	-9874
▁kayla	-9875
▁wyatt	-9876
▁indign	-9877
▁essence	-9878
▁claiming	-9879
▁mitchell	-9880
esy	-9881
▁unin	-9882
▁races	-9883
▁amelie	-9884
▁bundle	-9885
▁yawned	-9886
▁prompted	-9887
▁relative	-9888
▁stammered	-9889
▁scientists	-9890
▁alternative	-9891
▁organization	-9892
lli	-9893
▁oven	-9894
▁handy	-9895
▁advert	-9896
▁fidget	-9897
▁folder	-9898
▁advised	-9899
▁battles	-9900
▁chelsea	-9901
▁dessert	-9902
▁offense	-9903
▁alistair	-9904
su	-9905
nox	-9906
xic	-9907
free	-9908
step	-9909
dging	-9910
▁bulk	-9911
▁wars	-9912
▁jonah	-9913
▁treas	-9914
▁cement	-9915
▁intric	-9916
▁murphy	-9917
▁ransom	-9918
▁reflex	-9919
▁slides	-9920
▁stench	-9921
▁clipped	-9922
▁manners	-9923
▁pirates	-9924
▁warlock	-9925
▁organized	-9926
put	-9927
berg	-9928
with	-9929
▁bum	-9930
▁uses	-9931
▁feroc	-9932
inished	-9933
▁blamed	-9934
▁nicely	-9935
▁whimper	-9936
▁reassure	-9937
▁troubles	-9938
▁certainty	-9939
▁perimeter	-9940
gir	-9941
▁mam	-9942
▁tid	-9943
lines	-9944
▁erra	-9945
▁guid	-9946
▁xant	-9947
elling	-9948
▁poking	-9949
▁deepened	-9950
▁grasping	-9951
▁increase	-9952
▁mortimer	-9953
▁household	-9954
▁practiced	-9955
▁suspended	-9956
tw	-9957
ray	-9958
nold	-9959
rigg	-9960
▁tori	-9961
▁unle	-9962
uished	-9963
▁titan	-9964
▁cooler	-9965
▁locate	-9966
▁watches	-9967
▁circular	-9968
▁coughing	-9969
▁graceful	-9970
▁youngest	-9971
▁nightstand	-9972
▁revelation	-9973
▁windshield	-9974
▁traditional	-9975
lect	-9976
mers	-9977
oting	-9978
▁guts	-9979
▁poet	-9980
▁caves	-9981
▁churn	-9982
▁folds	-9983
▁gilla	-9984
▁announ	-9985
▁splash	-9986
▁edition	-9987
▁perfume	-9988
▁sickness	-9989
▁strongly	-9990
lsb	-9991
aver	-9992
▁epis	-9993
▁lori	-9994
▁stil	-9995
▁filed	-9996
▁nancy	-9997
▁vaugh	-9998
▁loomed	-9999
▁spaces	-10000
▁backseat	-10001
▁suitable	-10002
▁straining	-10003
▁exasperated	-10004
yon	-10005
load	-10006
▁dab	-10007
▁sak	-10008
encies	-10009
▁arist	-10010
▁fatig	-10011
▁trips	-10012
▁coffin	-10013
▁heaving	-10014
▁bursting	-10015
▁giggling	-10016
▁loosened	-10017
▁belgarath	-10018
▁concealed	-10019
▁reference	-10020
bec	-10021
phil	-10022
rise	-10023
ingly	-10024
oping	-10025
▁bout	-10026
▁coal	-10027
▁plum	-10028
▁chunk	-10029
▁fluff	-10030
▁coldly	-10031
▁colony	-10032
▁bethany	-10033
▁pumping	-10034
▁doorbell	-10035
▁flattery	-10036
▁gretchen	-10037
▁receiving	-10038
▁announcement	-10039
▁extraordinary	-10040
▁og	-10041
blue	-10042
vent	-10043
▁dent	-10044
▁altar	-10045
▁choke	-10046
▁colby	-10047
▁disor	-10048
▁flies	-10049
▁isana	-10050
▁ruins	-10051
▁inched	-10052
▁pickup	-10053
▁anguish	-10054
▁dripped	-10055
▁females	-10056
▁vanessa	-10057
▁drowning	-10058
▁challenged	-10059
chal	-10060
ller	-10061
▁lia	-10062
▁dizz	-10063
▁maze	-10064
▁merr	-10065
▁undo	-10066
▁clues	-10067
▁hates	-10068
▁exotic	-10069
▁fights	-10070
▁stored	-10071
▁alarmed	-10072
▁nikolas	-10073
▁popping	-10074
▁admiring	-10075
▁controls	-10076
▁administr	-10077
▁container	-10078
▁survivors	-10079
ggage	-10080
▁coax	-10081
▁behave	-10082
▁excuses	-10083
▁luggage	-10084
▁outcome	-10085
▁stumble	-10086
▁bethanne	-10087
▁dreadful	-10088
▁interests	-10089
aa	-10090
▁elf	-10091
▁mun	-10092
▁aged	-10093
▁alan	-10094
▁fried	-10095
▁manif	-10096
▁paige	-10097
▁rogue	-10098
▁stain	-10099
▁stink	-10100
▁uncon	-10101
▁endure	-10102
▁hector	-10103
▁script	-10104
▁vacant	-10105
▁warren	-10106
▁florida	-10107
▁nineteen	-10108
▁resigned	-10109
▁tourists	-10110
▁documents	-10111
fr	-10112
apt	-10113
eta	-10114
ilda	-10115
chers	-10116
cript	-10117
oused	-10118
ending	-10119
umbles	-10120
▁index	-10121
▁siren	-10122
▁wrigg	-10123
▁eighty	-10124
▁jasper	-10125
▁amusing	-10126
▁elements	-10127
▁scurried	-10128
▁acceptance	-10129
▁commitment	-10130
▁identified	-10131
▁mah	-10132
▁ugh	-10133
▁cape	-10134
▁sate	-10135
▁diver	-10136
▁joint	-10137
▁scalp	-10138
▁appeal	-10139
▁grandd	-10140
▁boulder	-10141
▁confron	-10142
▁pursuit	-10143
▁exposing	-10144
▁butterflies	-10145
▁established	-10146
▁ay	-10147
▁cody	-10148
▁auron	-10149
▁cooked	-10150
▁obeyed	-10151
▁roland	-10152
standing	-10153
▁ballroom	-10154
▁electrical	-10155
▁generations	-10156
ali	-10157
ersed	-10158
▁ares	-10159
▁quir	-10160
▁toys	-10161
▁apply	-10162
▁doyle	-10163
▁dunge	-10164
▁gasps	-10165
▁muddy	-10166
▁teams	-10167
▁yells	-10168
▁padded	-10169
▁paraly	-10170
▁pigeon	-10171
▁upwards	-10172
▁uttered	-10173
▁blessing	-10174
▁chambers	-10175
▁frequently	-10176
▁yourselves	-10177
bu	-10178
ima	-10179
dson	-10180
▁mae	-10181
▁rox	-10182
bones	-10183
itter	-10184
▁gare	-10185
▁mona	-10186
▁quin	-10187
▁crypt	-10188
▁gemma	-10189
▁horns	-10190
▁kinda	-10191
▁merry	-10192
▁sauce	-10193
▁scrut	-10194
▁kenned	-10195
▁traged	-10196
▁interrupting	-10197
rat	-10198
moon	-10199
▁enh	-10200
▁cait	-10201
▁sock	-10202
▁typed	-10203
▁jessie	-10204
▁portra	-10205
▁chatter	-10206
▁disting	-10207
▁hideous	-10208
▁sarcast	-10209
▁sneered	-10210
▁playfully	-10211
oden	-10212
▁via	-10213
▁gulp	-10214
▁rays	-10215
▁ditch	-10216
▁rises	-10217
▁decade	-10218
▁flinch	-10219
▁scales	-10220
▁tattoos	-10221
▁exploring	-10222
▁thrusting	-10223
▁vegetables	-10224
▁sarcastically	-10225
ayer	-10226
▁err	-10227
▁betty	-10228
▁brent	-10229
▁hairs	-10230
▁verge	-10231
▁unfair	-10232
▁lurking	-10233
▁invasion	-10234
▁politics	-10235
▁roommate	-10236
▁francisco	-10237
▁suggesting	-10238
▁temptation	-10239
▁authorities	-10240
▁experiences	-10241
▁jury	-10242
▁sizz	-10243
▁galax	-10244
▁sazed	-10245
▁divine	-10246
▁hailey	-10247
▁infant	-10248
▁wayden	-10249
▁jerking	-10250
▁chemical	-10251
▁guardians	-10252
▁mackenzie	-10253
▁resembled	-10254
▁compartment	-10255
▁complaining	-10256
--	-10257
▁il	-10258
ikes	-10259
▁htt	-10260
▁satin	-10261
▁candid	-10262
▁latter	-10263
▁belongs	-10264
▁darting	-10265
▁fellows	-10266
▁kennedy	-10267
▁accurate	-10268
▁companies	-10269
▁masculine	-10270
ody	-10271
sword	-10272
▁ains	-10273
▁dive	-10274
▁lila	-10275
▁limo	-10276
▁peek	-10277
▁abdom	-10278
▁alche	-10279
▁flour	-10280
▁gleam	-10281
▁monst	-10282
▁timmy	-10283
▁evelyn	-10284
▁plague	-10285
▁carmine	-10286
▁scooted	-10287
▁wheeled	-10288
▁regained	-10289
▁showered	-10290
▁sparhawk	-10291
▁tumbling	-10292
▁discarded	-10293
▁comprehend	-10294
▁conscience	-10295
▁congratulations	-10296
ba	-10297
adon	-10298
ulus	-10299
idded	-10300
ulars	-10301
▁reah	-10302
itable	-10303
spoken	-10304
▁knots	-10305
▁piles	-10306
▁clinic	-10307
▁deputy	-10308
▁nurses	-10309
▁presum	-10310
▁culture	-10311
▁network	-10312
▁disguise	-10313
▁squealed	-10314
▁strategy	-10315
▁mechanical	-10316
bar	-10317
cond	-10318
hear	-10319
hift	-10320
▁ego	-10321
artha	-10322
▁brun	-10323
▁orle	-10324
▁bleak	-10325
▁nolan	-10326
▁twent	-10327
▁nephil	-10328
▁raoden	-10329
▁slower	-10330
▁ainsley	-10331
▁allison	-10332
▁rescued	-10333
▁sparkled	-10334
▁sullivan	-10335
▁caressing	-10336
▁production	-10337
▁entertainment	-10338
boat	-10339
iott	-10340
mere	-10341
will	-10342
▁mab	-10343
glass	-10344
▁vine	-10345
taking	-10346
▁baron	-10347
▁finest	-10348
▁snakes	-10349
▁sutton	-10350
▁printed	-10351
▁remorse	-10352
▁sailing	-10353
▁weeping	-10354
▁suspicions	-10355
ost	-10356
▁ked	-10357
▁kee	-10358
▁dazz	-10359
ouring	-10360
riends	-10361
▁elves	-10362
▁swamp	-10363
▁vines	-10364
▁audible	-10365
▁johnnie	-10366
▁sweetie	-10367
▁subjects	-10368
▁published	-10369
▁whimpered	-10370
rn	-10371
acey	-10372
▁umb	-10373
▁cafe	-10374
▁maur	-10375
arents	-10376
occupied	-10377
▁bargain	-10378
▁carpath	-10379
▁stables	-10380
astically	-10381
▁acquaint	-10382
▁contempt	-10383
▁customer	-10384
▁misunder	-10385
oral	-10386
west	-10387
▁coy	-10388
▁tat	-10389
going	-10390
works	-10391
▁glam	-10392
▁rehe	-10393
▁curly	-10394
▁jacqu	-10395
▁vigor	-10396
▁warden	-10397
▁freshly	-10398
▁swelled	-10399
▁venture	-10400
▁worship	-10401
▁stalking	-10402
▁vengeance	-10403
▁importantly	-10404
▁international	-10405
iat	-10406
rsb	-10407
alls	-10408
▁voc	-10409
▁fidd	-10410
▁prem	-10411
▁reun	-10412
▁ashes	-10413
▁wrath	-10414
▁flatly	-10415
▁elliott	-10416
▁needles	-10417
▁tasting	-10418
▁snuggled	-10419
▁muttering	-10420
tion	-10421
▁elo	-10422
▁kad	-10423
after	-10424
▁chir	-10425
▁dard	-10426
▁flan	-10427
▁jaws	-10428
▁shaw	-10429
▁bared	-10430
▁perce	-10431
▁undoub	-10432
▁vaughn	-10433
▁nonchal	-10434
▁accounts	-10435
▁farewell	-10436
▁isolated	-10437
▁profound	-10438
▁controlling	-10439
hr	-10440
tedly	-10441
▁gamb	-10442
▁rumor	-10443
▁skies	-10444
▁tunic	-10445
▁nephew	-10446
▁ryland	-10447
▁sanity	-10448
▁tavern	-10449
▁unmist	-10450
▁sandwic	-10451
▁stiffly	-10452
▁potatoes	-10453
▁punished	-10454
▁tingling	-10455
▁wardrobe	-10456
▁exquisite	-10457
▁comparison	-10458
jan	-10459
ndy	-10460
▁asce	-10461
▁diet	-10462
▁luis	-10463
▁rejo	-10464
button	-10465
▁bryan	-10466
▁chron	-10467
▁incon	-10468
▁niece	-10469
▁perse	-10470
▁snarl	-10471
▁bathed	-10472
▁dawned	-10473
▁noting	-10474
▁protru	-10475
ensively	-10476
▁privile	-10477
▁deserves	-10478
▁resolved	-10479
▁confusing	-10480
▁deafening	-10481
▁makeshift	-10482
▁remarkable	-10483
azar	-10484
xton	-10485
▁eib	-10486
black	-10487
inson	-10488
▁hull	-10489
length	-10490
▁aidan	-10491
▁dimly	-10492
▁slamm	-10493
▁fitted	-10494
▁tanner	-10495
▁affairs	-10496
▁banging	-10497
▁eibhear	-10498
▁gallery	-10499
▁motions	-10500
▁playful	-10501
▁pulsing	-10502
▁diamonds	-10503
▁promptly	-10504
▁steaming	-10505
▁astonished	-10506
▁underworld	-10507
▁uncertainty	-10508
esar	-10509
onda	-10510
▁zar	-10511
▁alle	-10512
▁ally	-10513
▁trey	-10514
ctures	-10515
▁alleg	-10516
▁coats	-10517
▁devices	-10518
▁quicker	-10519
▁visibly	-10520
▁blushing	-10521
▁growling	-10522
▁moisture	-10523
▁observation	-10524
rep	-10525
vant	-10526
▁pia	-10527
rated	-10528
▁asph	-10529
▁comr	-10530
▁glob	-10531
fashion	-10532
▁canopy	-10533
▁glided	-10534
▁hating	-10535
▁keeper	-10536
▁contest	-10537
▁ventured	-10538
▁reassured	-10539
▁cer	-10540
erted	-10541
▁glen	-10542
▁kali	-10543
▁perp	-10544
▁remn	-10545
▁shin	-10546
▁agnes	-10547
▁ounce	-10548
▁shifts	-10549
▁drawers	-10550
▁illness	-10551
▁mortals	-10552
▁departed	-10553
▁fletcher	-10554
▁unexpectedly	-10555
osh	-10556
▁ald	-10557
▁frig	-10558
▁rita	-10559
▁denny	-10560
▁theat	-10561
▁wives	-10562
illance	-10563
▁meters	-10564
▁naught	-10565
▁ribbon	-10566
kerchief	-10567
▁apprent	-10568
▁strides	-10569
▁emotionally	-10570
▁undoubtedly	-10571
bon	-10572
▁clu	-10573
▁wax	-10574
▁loft	-10575
▁pros	-10576
▁bluff	-10577
▁overd	-10578
▁supported	-10579
▁brightened	-10580
cat	-10581
coat	-10582
lend	-10583
▁rei	-10584
▁mull	-10585
▁tile	-10586
▁asher	-10587
▁glint	-10588
▁scand	-10589
▁uneas	-10590
▁wayne	-10591
▁alicia	-10592
▁fighter	-10593
▁payment	-10594
▁clenching	-10595
▁waterfall	-10596
▁cigarettes	-10597
▁supporting	-10598
▁individuals	-10599
▁surveillance	-10600
oebe	-10601
▁abb	-10602
▁dir	-10603
▁bloom	-10604
▁mates	-10605
▁anonym	-10606
▁chapel	-10607
▁drives	-10608
▁growth	-10609
▁noelle	-10610
▁divided	-10611
▁plucked	-10612
▁restrain	-10613
▁handkerchief	-10614
vi	-10615
▁sep	-10616
inges	-10617
▁elle	-10618
▁bells	-10619
▁clark	-10620
▁gloom	-10621
▁sixth	-10622
▁whirl	-10623
▁wires	-10624
renched	-10625
▁etched	-10626
▁phoebe	-10627
▁warming	-10628
▁designer	-10629
▁flirting	-10630
▁handling	-10631
▁purposes	-10632
▁astonishment	-10633
▁grandparents	-10634
kno	-10635
burg	-10636
▁barr	-10637
▁coke	-10638
▁lina	-10639
▁caden	-10640
▁rubble	-10641
▁shovel	-10642
▁unnatural	-10643
▁instrument	-10644
▁kl	-10645
▁mush	-10646
▁tant	-10647
▁vial	-10648
agging	-10649
▁amira	-10650
▁bands	-10651
▁chast	-10652
▁refres	-10653
▁straps	-10654
▁caitlin	-10655
▁harshly	-10656
▁howling	-10657
▁mothers	-10658
▁tremend	-10659
▁lawrence	-10660
▁appealing	-10661
▁recording	-10662
▁microphone	-10663
▁concentrating	-10664
wen	-10665
▁ori	-10666
▁abdu	-10667
▁shir	-10668
▁brist	-10669
▁bumps	-10670
▁frail	-10671
▁units	-10672
▁claims	-10673
▁heroes	-10674
▁jammed	-10675
▁monica	-10676
▁muster	-10677
▁sagged	-10678
▁satell	-10679
inations	-10680
▁cramped	-10681
▁flutter	-10682
▁shadowy	-10683
▁contacts	-10684
▁accompany	-10685
▁cri	-10686
▁chor	-10687
▁dict	-10688
▁arena	-10689
▁clubs	-10690
▁widow	-10691
osition	-10692
▁cattle	-10693
▁swings	-10694
▁emptied	-10695
▁reverse	-10696
▁rippled	-10697
▁soaking	-10698
▁demeanor	-10699
▁slapping	-10700
▁institute	-10701
▁strongest	-10702
dain	-10703
▁glee	-10704
▁nuzz	-10705
rousal	-10706
▁aback	-10707
▁artif	-10708
▁pouch	-10709
▁snuck	-10710
▁armies	-10711
▁ashton	-10712
▁chimed	-10713
▁meadow	-10714
▁pumped	-10715
▁arousal	-10716
▁calming	-10717
▁jerrick	-10718
▁johnson	-10719
▁nestled	-10720
▁pitched	-10721
▁agitated	-10722
▁repeating	-10723
▁speechless	-10724
▁aj	-10725
storm	-10726
▁bait	-10727
▁july	-10728
▁sadd	-10729
▁subd	-10730
iantly	-10731
▁gaius	-10732
▁snaps	-10733
▁murmur	-10734
▁skirts	-10735
▁freaked	-10736
▁moaning	-10737
▁stalker	-10738
▁scenario	-10739
▁thompson	-10740
▁sentiment	-10741
▁witnesses	-10742
▁scientific	-10743
▁ultimately	-10744
lene	-10745
nell	-10746
▁nay	-10747
▁bash	-10748
▁twil	-10749
▁grime	-10750
▁applic	-10751
▁fisher	-10752
▁couples	-10753
▁desires	-10754
▁reduced	-10755
▁spoiled	-10756
▁awaiting	-10757
▁instance	-10758
▁punching	-10759
▁streamed	-10760
sis	-10761
lymp	-10762
▁assh	-10763
▁nove	-10764
▁rift	-10765
▁seas	-10766
▁beans	-10767
▁belle	-10768
▁paces	-10769
▁sucks	-10770
▁venom	-10771
▁canyon	-10772
▁casino	-10773
▁derrick	-10774
▁disinte	-10775
▁haunting	-10776
▁hurrying	-10777
▁paradise	-10778
▁commercial	-10779
▁interjected	-10780
ourt	-10781
▁ral	-10782
▁linc	-10783
soever	-10784
stream	-10785
▁ferry	-10786
▁hyper	-10787
▁linen	-10788
▁olymp	-10789
▁pastor	-10790
▁zander	-10791
▁tragedy	-10792
▁helplessly	-10793
▁communicate	-10794
▁sympathetic	-10795
▁increasingly	-10796
dox	-10797
▁ts	-10798
ayne	-10799
▁jag	-10800
▁alaric	-10801
▁bruise	-10802
▁crimes	-10803
▁visits	-10804
▁artific	-10805
▁conceal	-10806
▁matches	-10807
▁rumbling	-10808
▁whistled	-10809
▁interfere	-10810
cker	-10811
hill	-10812
lest	-10813
raine	-10814
▁cael	-10815
▁gram	-10816
▁panc	-10817
▁rice	-10818
olding	-10819
▁vault	-10820
▁whore	-10821
▁aiming	-10822
▁crisis	-10823
▁howled	-10824
▁mutual	-10825
▁obtain	-10826
▁chemist	-10827
▁impulse	-10828
▁shields	-10829
▁critical	-10830
▁cupboard	-10831
▁figuring	-10832
▁terminal	-10833
▁threaten	-10834
▁disorient	-10835
▁emptiness	-10836
▁ll	-10837
burn	-10838
stein	-10839
▁alma	-10840
▁thie	-10841
▁trig	-10842
▁vane	-10843
▁vord	-10844
▁kiran	-10845
▁tasks	-10846
▁dismay	-10847
▁farmer	-10848
▁marcia	-10849
▁reader	-10850
▁rotten	-10851
▁sakura	-10852
▁conduct	-10853
▁mallory	-10854
▁realise	-10855
fashioned	-10856
▁composed	-10857
▁depressed	-10858
irst	-10859
▁ace	-10860
▁gay	-10861
▁vow	-10862
▁lynn	-10863
licted	-10864
making	-10865
▁lindy	-10866
▁shawn	-10867
▁brooke	-10868
▁sketch	-10869
▁tablet	-10870
▁throws	-10871
▁xander	-10872
▁abdomen	-10873
▁cheered	-10874
▁susannah	-10875
▁bewildered	-10876
▁glistening	-10877
▁beautifully	-10878
held	-10879
phic	-10880
thor	-10881
▁bil	-10882
▁casc	-10883
▁limb	-10884
▁cable	-10885
▁plays	-10886
▁yield	-10887
▁dawson	-10888
▁gareth	-10889
▁chilled	-10890
▁messing	-10891
▁rehears	-10892
▁proposal	-10893
▁americans	-10894
▁assassins	-10895
▁bodyguard	-10896
▁henrietta	-10897
▁commanding	-10898
▁jacqueline	-10899
▁motorcycle	-10900
▁supposedly	-10901
▁volunteered	-10902
▁unbelievable	-10903
vo	-10904
iac	-10905
sen	-10906
sell	-10907
▁dal	-10908
▁fau	-10909
▁heed	-10910
▁italy	-10911
▁lonel	-10912
▁viper	-10913
ounding	-10914
▁aliens	-10915
▁avenue	-10916
▁excess	-10917
▁kendra	-10918
▁tribes	-10919
▁unders	-10920
▁cockpit	-10921
▁mouthed	-10922
▁presses	-10923
▁harmless	-10924
▁twilight	-10925
▁assembled	-10926
▁commotion	-10927
▁transferred	-10928
eng	-10929
pan	-10930
rum	-10931
umin	-10932
word	-10933
▁entr	-10934
▁fitz	-10935
▁pang	-10936
itious	-10937
▁fuzzy	-10938
▁benjam	-10939
▁bronze	-10940
▁pepper	-10941
▁planes	-10942
▁remons	-10943
▁patting	-10944
▁wallace	-10945
▁momentum	-10946
▁dedicated	-10947
▁collecting	-10948
▁shuddering	-10949
mus	-10950
llar	-10951
name	-10952
▁beau	-10953
▁reco	-10954
nected	-10955
▁blend	-10956
▁vowed	-10957
▁fiance	-10958
▁hurled	-10959
▁jogged	-10960
▁raises	-10961
▁stamped	-10962
▁tracked	-10963
▁boarding	-10964
▁gingerly	-10965
▁photogra	-10966
▁practicing	-10967
guer	-10968
▁sapp	-10969
▁tomb	-10970
ributed	-10971
▁parlor	-10972
▁pursue	-10973
▁sample	-10974
▁streak	-10975
▁suffoc	-10976
▁tennis	-10977
▁wilson	-10978
▁barking	-10979
▁creaked	-10980
▁goddamn	-10981
▁islands	-10982
▁lillian	-10983
▁screens	-10984
▁springs	-10985
▁commands	-10986
▁providing	-10987
▁necessarily	-10988
alog	-10989
▁raj	-10990
▁cull	-10991
▁trek	-10992
▁escal	-10993
itution	-10994
▁mildly	-10995
▁bradley	-10996
▁contrary	-10997
▁policeman	-10998
▁regularly	-10999
▁admiration	-11000
▁aggressive	-11001
▁fluttering	-11002
▁q	-11003
mob	-11004
pro	-11005
ummy	-11006
undy	-11007
▁moo	-11008
▁sham	-11009
▁aundy	-11010
▁balth	-11011
▁benji	-11012
▁franz	-11013
ologist	-11014
▁allies	-11015
▁clawed	-11016
▁cronus	-11017
▁nearer	-11018
▁sights	-11019
▁warmly	-11020
▁approve	-11021
▁maureen	-11022
▁strokes	-11023
▁artifact	-11024
▁benjamin	-11025
▁cheating	-11026
▁unbutton	-11027
▁unbearable	-11028
▁whatsoever	-11029
▁dangerously	-11030
uls	-11031
▁dy	-11032
ders	-11033
ufact	-11034
▁ezra	-11035
▁helm	-11036
▁lacy	-11037
▁swat	-11038
▁apron	-11039
▁handc	-11040
▁raked	-11041
▁trails	-11042
▁harriet	-11043
▁shimmer	-11044
▁spiders	-11045
▁talents	-11046
▁guarding	-11047
▁surprises	-11048
▁dak	-11049
break	-11050
▁arts	-11051
▁cobb	-11052
▁lola	-11053
▁budge	-11054
▁chess	-11055
▁grows	-11056
▁mairi	-11057
▁punct	-11058
▁braith	-11059
▁worker	-11060
▁antique	-11061
▁ominous	-11062
▁pendant	-11063
▁ushered	-11064
▁bitterly	-11065
▁pondered	-11066
▁depending	-11067
▁foundation	-11068
▁sensations	-11069
▁overlooking	-11070
▁receptionist	-11071
dro	-11072
▁dian	-11073
▁plea	-11074
▁trot	-11075
▁dasen	-11076
▁poker	-11077
▁slips	-11078
▁brandy	-11079
▁lethal	-11080
▁mutter	-11081
▁whined	-11082
ribution	-11083
▁antonio	-11084
▁bandage	-11085
▁patches	-11086
▁skilled	-11087
▁spectac	-11088
▁tucking	-11089
▁xanthus	-11090
▁countries	-11091
▁shuffling	-11092
▁convenient	-11093
▁forgiveness	-11094
▁jut	-11095
▁kai	-11096
icism	-11097
▁lind	-11098
▁rely	-11099
▁ebook	-11100
▁kills	-11101
▁monit	-11102
▁quant	-11103
▁martha	-11104
▁stella	-11105
▁stradd	-11106
▁traces	-11107
▁doorkno	-11108
▁masters	-11109
▁symbols	-11110
▁prophecy	-11111
▁treacher	-11112
▁wrenched	-11113
▁corridors	-11114
▁gabrielle	-11115
▁sweatshirt	-11116
▁comfortably	-11117
▁expectantly	-11118
wyn	-11119
gara	-11120
▁cid	-11121
brush	-11122
▁bian	-11123
▁skye	-11124
thirty	-11125
▁domen	-11126
▁ellis	-11127
▁lexie	-11128
▁loung	-11129
▁sends	-11130
▁fixing	-11131
▁louise	-11132
▁pupils	-11133
▁wraith	-11134
▁grimace	-11135
▁priests	-11136
▁raining	-11137
▁balanced	-11138
▁presents	-11139
▁cyl	-11140
▁hush	-11141
▁leis	-11142
atched	-11143
uously	-11144
▁debbie	-11145
▁hayden	-11146
▁perple	-11147
▁writer	-11148
▁altered	-11149
▁insight	-11150
▁trotted	-11151
▁groaning	-11152
▁indicate	-11153
▁manufact	-11154
▁oversized	-11155
▁responding	-11156
ww	-11157
olyn	-11158
▁jaz	-11159
▁lyn	-11160
▁vit	-11161
anity	-11162
rella	-11163
▁chef	-11164
▁wept	-11165
▁clara	-11166
▁clint	-11167
▁legit	-11168
▁alexis	-11169
▁trance	-11170
▁uneven	-11171
▁blindly	-11172
▁classic	-11173
▁orleans	-11174
▁polgara	-11175
▁slashed	-11176
▁targets	-11177
▁tracing	-11178
▁website	-11179
▁accusing	-11180
▁december	-11181
▁hesitant	-11182
▁managing	-11183
▁seductive	-11184
▁someplace	-11185
▁disappearance	-11186
cia	-11187
▁shea	-11188
▁vick	-11189
arring	-11190
rained	-11191
▁beats	-11192
▁prose	-11193
▁scrap	-11194
▁africa	-11195
▁boards	-11196
▁gladly	-11197
▁nausea	-11198
▁scenes	-11199
▁disdain	-11200
▁whitney	-11201
▁involunt	-11202
▁reckless	-11203
▁treating	-11204
▁ancestors	-11205
▁automatic	-11206
▁execution	-11207
▁bitterness	-11208
▁exasperation	-11209
vol	-11210
acia	-11211
nest	-11212
ruct	-11213
▁beld	-11214
bridge	-11215
ithing	-11216
▁bucks	-11217
▁silas	-11218
▁vigil	-11219
▁darius	-11220
▁dotted	-11221
▁horace	-11222
▁select	-11223
▁termin	-11224
▁beaming	-11225
▁hissing	-11226
▁leisure	-11227
▁lipstick	-11228
▁smallest	-11229
▁virginia	-11230
▁challenging	-11231
▁countryside	-11232
ok	-11233
hett	-11234
lynn	-11235
olfe	-11236
▁nom	-11237
▁boil	-11238
▁cans	-11239
tember	-11240
▁abuse	-11241
▁madam	-11242
▁wryly	-11243
▁listed	-11244
▁singer	-11245
▁towels	-11246
▁doubled	-11247
▁flaming	-11248
▁maurice	-11249
▁bedrooms	-11250
▁smelling	-11251
▁streaked	-11252
▁contacted	-11253
▁pointless	-11254
▁conviction	-11255
▁permanently	-11256
amon	-11257
▁jas	-11258
▁acts	-11259
▁daim	-11260
▁manf	-11261
▁weld	-11262
arence	-11263
▁backup	-11264
▁frowns	-11265
▁parall	-11266
▁antonia	-11267
▁blinded	-11268
▁fulfill	-11269
▁gestures	-11270
▁reverber	-11271
▁solemnly	-11272
▁eyelashes	-11273
▁cheerfully	-11274
▁loneliness	-11275
bour	-11276
kirt	-11277
▁spa	-11278
▁erik	-11279
▁sali	-11280
▁wist	-11281
moving	-11282
▁barry	-11283
▁hades	-11284
▁alanna	-11285
▁riders	-11286
▁captive	-11287
▁committ	-11288
▁hardest	-11289
▁primary	-11290
▁thumped	-11291
▁industry	-11292
▁nephilim	-11293
▁rejected	-11294
▁scarcely	-11295
▁whipping	-11296
▁relatives	-11297
▁sarcastic	-11298
▁acceptable	-11299
▁resemblance	-11300
▁ot	-11301
▁aqu	-11302
▁bass	-11303
▁cory	-11304
▁dusk	-11305
▁hail	-11306
▁luca	-11307
▁airpl	-11308
▁beads	-11309
▁bolts	-11310
▁pairs	-11311
▁smold	-11312
▁steak	-11313
▁tramp	-11314
▁views	-11315
▁avalon	-11316
▁chilly	-11317
▁cliffs	-11318
▁dissip	-11319
▁hypnot	-11320
▁jolene	-11321
▁medium	-11322
▁sharon	-11323
▁sylvie	-11324
▁strikes	-11325
▁talaith	-11326
▁intruder	-11327
▁recovery	-11328
▁scraping	-11329
▁dissolved	-11330
▁recommend	-11331
▁screeched	-11332
▁independent	-11333
iqu	-11334
olf	-11335
elly	-11336
▁tol	-11337
▁tran	-11338
▁trio	-11339
▁voss	-11340
▁colum	-11341
▁cycle	-11342
▁rebel	-11343
▁sheen	-11344
▁immune	-11345
▁infuri	-11346
▁boiling	-11347
▁descent	-11348
▁stifled	-11349
▁wonders	-11350
▁adorable	-11351
▁assembly	-11352
▁capacity	-11353
▁discreet	-11354
▁sensible	-11355
▁attending	-11356
▁butterfly	-11357
▁sandwiches	-11358
▁tentatively	-11359
mor	-11360
▁jin	-11361
▁vet	-11362
inals	-11363
tical	-11364
▁bail	-11365
▁bobo	-11366
▁cath	-11367
▁rhys	-11368
▁dodge	-11369
▁laser	-11370
▁dodged	-11371
▁erotic	-11372
▁sculpt	-11373
▁timber	-11374
▁custody	-11375
▁ecstasy	-11376
▁therapy	-11377
▁attacker	-11378
▁creative	-11379
▁doorknob	-11380
▁recorded	-11381
▁plastered	-11382
▁reporters	-11383
▁september	-11384
▁belongings	-11385
▁depression	-11386
hab	-11387
mun	-11388
obs	-11389
▁dat	-11390
▁mak	-11391
▁piv	-11392
▁lave	-11393
▁saul	-11394
▁bears	-11395
▁subur	-11396
itively	-11397
▁boxers	-11398
▁craved	-11399
▁hearth	-11400
▁nicola	-11401
▁camille	-11402
▁statues	-11403
▁appetite	-11404
▁clarence	-11405
▁paranoid	-11406
▁persuade	-11407
▁writhing	-11408
▁goodnight	-11409
▁sophistic	-11410
▁colleagues	-11411
▁philosophy	-11412
▁pla	-11413
▁woo	-11414
▁bled	-11415
▁hass	-11416
▁manic	-11417
▁muted	-11418
▁econom	-11419
▁flexed	-11420
▁honour	-11421
▁kelsey	-11422
▁pierre	-11423
▁resear	-11424
▁tanned	-11425
▁thirsty	-11426
▁lifemate	-11427
▁adjusting	-11428
gypt	-11429
story	-11430
woman	-11431
▁baff	-11432
▁cram	-11433
▁diag	-11434
▁yach	-11435
uation	-11436
▁costs	-11437
▁glued	-11438
▁lacey	-11439
▁misch	-11440
▁rider	-11441
▁cookie	-11442
▁disple	-11443
▁fooled	-11444
▁liquor	-11445
▁bathing	-11446
▁prudence	-11447
▁fortunate	-11448
▁materials	-11449
▁quivering	-11450
leen	-11451
wene	-11452
▁hale	-11453
▁lena	-11454
▁pops	-11455
▁saff	-11456
▁moral	-11457
▁risen	-11458
▁chorus	-11459
▁denial	-11460
▁donald	-11461
▁doomed	-11462
▁egwene	-11463
▁resign	-11464
▁consult	-11465
▁endured	-11466
▁flopped	-11467
▁mirrors	-11468
▁exterior	-11469
▁marching	-11470
▁unfolded	-11471
▁teenagers	-11472
▁artificial	-11473
▁preparation	-11474
upt	-11475
enie	-11476
rina	-11477
anton	-11478
burst	-11479
cloth	-11480
ublic	-11481
▁padd	-11482
▁sund	-11483
vation	-11484
▁wears	-11485
umbered	-11486
▁alfred	-11487
▁angles	-11488
▁league	-11489
▁risked	-11490
▁scheme	-11491
▁wiggled	-11492
▁careless	-11493
▁chuckles	-11494
▁japanese	-11495
▁weakened	-11496
▁wheelchair	-11497
▁unnecessary	-11498
▁appreciation	-11499
▁successfully	-11500
ban	-11501
ggs	-11502
anse	-11503
which	-11504
▁clit	-11505
▁puck	-11506
▁trim	-11507
▁whoo	-11508
▁apoll	-11509
▁aroma	-11510
▁badge	-11511
▁bruce	-11512
▁egypt	-11513
▁insec	-11514
▁dagmar	-11515
▁hooded	-11516
▁urging	-11517
▁loosely	-11518
▁satisfy	-11519
▁sparked	-11520
▁applause	-11521
▁imperial	-11522
▁dimension	-11523
▁severance	-11524
▁sufficient	-11525
▁differences	-11526
fol	-11527
lda	-11528
ares	-11529
yson	-11530
▁tet	-11531
▁unl	-11532
heres	-11533
▁coco	-11534
▁mund	-11535
▁worm	-11536
igning	-11537
▁latch	-11538
▁jolted	-11539
▁softer	-11540
▁volcan	-11541
▁buckled	-11542
▁cluster	-11543
▁episode	-11544
▁genetic	-11545
▁terrain	-11546
▁festival	-11547
▁arguments	-11548
▁honeymoon	-11549
▁operations	-11550
▁reflecting	-11551
▁civilization	-11552
▁entertaining	-11553
oles	-11554
▁tee	-11555
▁fits	-11556
▁paws	-11557
▁seet	-11558
▁maker	-11559
▁angled	-11560
▁joanna	-11561
▁sailed	-11562
▁weaker	-11563
▁columns	-11564
▁corrupt	-11565
▁craving	-11566
▁daggers	-11567
▁expanse	-11568
▁honored	-11569
▁vibrant	-11570
▁expressed	-11571
▁formation	-11572
▁surviving	-11573
gal	-11574
hard	-11575
mont	-11576
osis	-11577
stra	-11578
ucle	-11579
celyn	-11580
▁envy	-11581
▁slab	-11582
▁vort	-11583
icians	-11584
istics	-11585
▁bella	-11586
▁rooft	-11587
▁plains	-11588
▁silken	-11589
▁cupping	-11590
▁gaining	-11591
▁parting	-11592
▁charging	-11593
▁forgiven	-11594
▁mischiev	-11595
▁ruthless	-11596
▁stinging	-11597
▁graduated	-11598
▁quickened	-11599
▁signature	-11600
▁shattering	-11601
▁bisc	-11602
antial	-11603
▁colder	-11604
▁dardan	-11605
▁marvel	-11606
▁orphan	-11607
▁denying	-11608
▁footing	-11609
▁harvest	-11610
▁looming	-11611
▁murmurs	-11612
▁sandals	-11613
▁grinding	-11614
▁keyboard	-11615
▁slippery	-11616
▁squeaked	-11617
▁exaggerated	-11618
▁instruments	-11619
▁consideration	-11620
fin	-11621
ras	-11622
▁bure	-11623
rossed	-11624
▁exhib	-11625
▁janie	-11626
▁tents	-11627
▁splend	-11628
▁texted	-11629
▁aroused	-11630
▁bubbles	-11631
▁concert	-11632
▁granite	-11633
▁guiding	-11634
▁warlord	-11635
▁mornings	-11636
▁tenderness	-11637
mic	-11638
rers	-11639
▁beef	-11640
▁beha	-11641
▁suzy	-11642
▁moses	-11643
▁skyla	-11644
▁easing	-11645
▁praise	-11646
▁purred	-11647
▁robbie	-11648
▁ticked	-11649
▁designs	-11650
▁expense	-11651
▁fatigue	-11652
▁jocelyn	-11653
▁tilting	-11654
▁torches	-11655
▁michaels	-11656
▁vibrated	-11657
▁balthazar	-11658
▁strangled	-11659
▁transparent	-11660
iry	-11661
oust	-11662
▁dre	-11663
▁jur	-11664
▁doom	-11665
▁skim	-11666
lected	-11667
▁cidra	-11668
▁embed	-11669
▁snack	-11670
▁tanks	-11671
▁emerge	-11672
▁marcie	-11673
▁awaited	-11674
▁romulus	-11675
▁clicking	-11676
▁detailed	-11677
▁flicking	-11678
▁littered	-11679
▁telepath	-11680
▁chemistry	-11681
▁shimmered	-11682
▁twitching	-11683
had	-11684
aris	-11685
atha	-11686
bird	-11687
edar	-11688
kers	-11689
nine	-11690
umsy	-11691
bride	-11692
jamas	-11693
▁cozy	-11694
▁deed	-11695
▁orch	-11696
▁serp	-11697
▁damen	-11698
▁freck	-11699
▁clumsy	-11700
▁mentor	-11701
▁sheath	-11702
▁sheila	-11703
▁sirens	-11704
▁hostile	-11705
▁everyday	-11706
▁november	-11707
▁intensely	-11708
▁standards	-11709
▁gracefully	-11710
▁encouragement	-11711
olic	-11712
vael	-11713
▁lud	-11714
bound	-11715
ormal	-11716
▁fang	-11717
abouts	-11718
▁error	-11719
▁haunt	-11720
▁risks	-11721
▁splin	-11722
stained	-11723
▁blazed	-11724
▁frenzy	-11725
▁panted	-11726
▁policy	-11727
▁rifles	-11728
▁somber	-11729
▁claudia	-11730
▁rotting	-11731
▁terrace	-11732
▁engulfed	-11733
▁interact	-11734
▁interven	-11735
▁compelled	-11736
▁connecting	-11737
▁spectacular	-11738
▁dramatically	-11739
gon	-11740
amic	-11741
aven	-11742
irin	-11743
▁hend	-11744
▁hmmm	-11745
▁inez	-11746
▁logs	-11747
▁twig	-11748
weight	-11749
▁allan	-11750
▁bombs	-11751
▁ivory	-11752
▁stale	-11753
▁condem	-11754
▁debate	-11755
▁gordon	-11756
▁janice	-11757
▁parade	-11758
▁battery	-11759
▁belinda	-11760
▁pinning	-11761
ervations	-11762
▁defenses	-11763
▁gwenvael	-11764
▁homeless	-11765
▁republic	-11766
▁restored	-11767
▁tenderly	-11768
▁flattened	-11769
▁narrowing	-11770
▁personnel	-11771
▁management	-11772
oes	-11773
atis	-11774
gled	-11775
greg	-11776
ober	-11777
some	-11778
grown	-11779
▁brie	-11780
▁ferv	-11781
▁lure	-11782
▁ridd	-11783
▁smar	-11784
▁teth	-11785
▁cigar	-11786
▁blinds	-11787
▁hummed	-11788
▁lilith	-11789
▁revers	-11790
▁signals	-11791
▁wearily	-11792
▁faltered	-11793
▁intricate	-11794
▁procedure	-11795
▁confronted	-11796
▁containing	-11797
▁battlefield	-11798
nut	-11799
aude	-11800
▁ark	-11801
athom	-11802
nedra	-11803
▁frog	-11804
▁stur	-11805
udging	-11806
▁effic	-11807
▁fools	-11808
▁fries	-11809
▁label	-11810
▁spook	-11811
▁teren	-11812
▁vimes	-11813
▁bitten	-11814
▁copies	-11815
▁encirc	-11816
▁exists	-11817
▁galaxy	-11818
▁shoots	-11819
▁shriek	-11820
▁static	-11821
▁swiped	-11822
▁corpses	-11823
▁dislike	-11824
▁murders	-11825
▁soothed	-11826
▁theresa	-11827
▁courtesy	-11828
▁fleeting	-11829
▁chuckling	-11830
▁yup	-11831
store	-11832
▁daph	-11833
▁garn	-11834
▁gull	-11835
▁pawn	-11836
▁raid	-11837
▁tink	-11838
unning	-11839
▁bully	-11840
▁horde	-11841
▁naomi	-11842
▁sorce	-11843
▁terra	-11844
▁bachel	-11845
▁domain	-11846
▁monkey	-11847
▁posted	-11848
▁unlock	-11849
▁auction	-11850
▁feature	-11851
▁marguer	-11852
▁mcbride	-11853
▁speakers	-11854
▁unspoken	-11855
▁blackened	-11856
cs	-11857
gio	-11858
hor	-11859
uch	-11860
eenth	-11861
▁cald	-11862
▁gnaw	-11863
▁whee	-11864
▁anita	-11865
▁bever	-11866
▁blaze	-11867
▁exped	-11868
▁flown	-11869
▁naive	-11870
▁saber	-11871
▁daphne	-11872
▁rental	-11873
▁rented	-11874
▁shrink	-11875
▁warner	-11876
gression	-11877
▁angeles	-11878
▁dungeon	-11879
▁gunfire	-11880
▁plopped	-11881
▁sunrise	-11882
▁walkway	-11883
▁mouthful	-11884
▁signaled	-11885
▁squirmed	-11886
▁swelling	-11887
▁throbbed	-11888
▁uniforms	-11889
▁committee	-11890
▁substance	-11891
▁virtually	-11892
▁marguerite	-11893
gate	-11894
utes	-11895
▁pew	-11896
▁lull	-11897
▁mari	-11898
▁hover	-11899
▁meyer	-11900
▁packs	-11901
▁causes	-11902
▁fergus	-11903
▁marina	-11904
▁shards	-11905
▁stroll	-11906
▁inherit	-11907
▁approved	-11908
▁draining	-11909
▁merchant	-11910
▁priority	-11911
▁responds	-11912
▁apologies	-11913
▁rebellion	-11914
▁cheekbones	-11915
▁pm	-11916
▁adel	-11917
▁vice	-11918
▁brink	-11919
▁disgr	-11920
▁gaunt	-11921
▁gazes	-11922
▁lamps	-11923
▁orche	-11924
▁roast	-11925
▁rowan	-11926
▁bianca	-11927
▁canada	-11928
▁kenzie	-11929
▁lesser	-11930
▁pedest	-11931
▁spiral	-11932
▁burying	-11933
▁contrad	-11934
▁crosses	-11935
▁mainten	-11936
▁observe	-11937
▁seventh	-11938
▁acquired	-11939
▁lavender	-11940
▁manifest	-11941
▁essential	-11942
▁extending	-11943
▁longsword	-11944
▁slaughter	-11945
▁graduation	-11946
▁presumably	-11947
▁recognised	-11948
▁reassurance	-11949
▁replacement	-11950
zi	-11951
fish	-11952
▁tul	-11953
▁gyps	-11954
▁howl	-11955
▁joni	-11956
▁verd	-11957
▁weep	-11958
▁braid	-11959
▁sofie	-11960
▁athlet	-11961
▁cannon	-11962
▁facial	-11963
▁newest	-11964
▁clouded	-11965
▁excused	-11966
▁fearful	-11967
▁longest	-11968
▁renewed	-11969
▁roberts	-11970
▁yanking	-11971
▁highness	-11972
▁talented	-11973
▁urgently	-11974
▁exploding	-11975
▁glittered	-11976
▁monstrous	-11977
▁sickening	-11978
▁untouched	-11979
▁inspection	-11980
▁retreating	-11981
▁experiments	-11982
▁fascination	-11983
▁intimidating	-11984
uh	-11985
iya	-11986
aska	-11987
icks	-11988
▁dew	-11989
▁dup	-11990
▁mmm	-11991
▁dipl	-11992
▁http	-11993
▁stem	-11994
athing	-11995
mented	-11996
▁heath	-11997
▁kicks	-11998
▁murie	-11999
▁reign	-12000
▁unnot	-12001
▁conner	-12002
▁cruise	-12003
▁interv	-12004
▁serial	-12005
▁spared	-12006
▁deepest	-12007
▁scarred	-12008
▁sternly	-12009
▁beckoned	-12010
▁fraction	-12011
▁intimacy	-12012
▁magazines	-12013
▁newspapers	-12014
▁pronounced	-12015
cedes	-12016
ridge	-12017
▁brig	-12018
▁jazz	-12019
▁myra	-12020
ieving	-12021
▁annab	-12022
▁austr	-12023
▁camps	-12024
▁draft	-12025
▁embro	-12026
▁fills	-12027
▁herbs	-12028
▁phant	-12029
▁bureau	-12030
▁caller	-12031
▁checks	-12032
▁expose	-12033
▁slacks	-12034
▁sturdy	-12035
▁citizen	-12036
▁persons	-12037
▁shepher	-12038
▁bastards	-12039
▁measured	-12040
▁softness	-12041
▁inherited	-12042
▁effectively	-12043
oty	-12044
asan	-12045
hour	-12046
otch	-12047
stan	-12048
ucky	-12049
▁fey	-12050
▁gio	-12051
▁ski	-12052
▁bryn	-12053
▁dill	-12054
▁menc	-12055
▁prow	-12056
▁stad	-12057
▁brett	-12058
▁drell	-12059
▁nucle	-12060
▁swarm	-12061
▁weeds	-12062
▁lacked	-12063
▁timothy	-12064
▁weaving	-12065
▁flooding	-12066
▁remnants	-12067
▁spitting	-12068
▁thumping	-12069
▁attendant	-12070
▁prevented	-12071
▁associated	-12072
▁collective	-12073
▁recovering	-12074
▁tremendous	-12075
cal	-12076
chel	-12077
▁spi	-12078
imity	-12079
somet	-12080
▁abra	-12081
▁pled	-12082
ration	-12083
▁crude	-12084
▁leash	-12085
▁condom	-12086
▁rupert	-12087
▁shaved	-12088
▁tobias	-12089
▁barbara	-12090
▁dignity	-12091
▁drellic	-12092
▁kaitlyn	-12093
▁patrons	-12094
▁searing	-12095
▁childish	-12096
▁upcoming	-12097
▁mencheres	-12098
▁residents	-12099
▁compulsion	-12100
▁distracting	-12101
▁experiencing	-12102
▁unmistakable	-12103
dog	-12104
ely	-12105
itz	-12106
even	-12107
iddy	-12108
olai	-12109
ucks	-12110
ilton	-12111
proof	-12112
▁maps	-12113
▁sera	-12114
rapped	-12115
▁cuffs	-12116
▁globe	-12117
▁humid	-12118
▁aurora	-12119
▁manuel	-12120
▁puddle	-12121
▁abraham	-12122
▁october	-12123
▁predator	-12124
▁proposed	-12125
▁sapphire	-12126
▁stabbing	-12127
▁enjoyment	-12128
▁deliberate	-12129
▁constructed	-12130
▁housekeeper	-12131
▁preoccupied	-12132
▁apprehension	-12133
hh	-12134
zil	-12135
▁han	-12136
▁pry	-12137
anche	-12138
dream	-12139
▁cert	-12140
▁odor	-12141
▁rend	-12142
▁acute	-12143
▁valid	-12144
▁clench	-12145
▁crunch	-12146
▁ernest	-12147
▁fallon	-12148
▁hallow	-12149
▁shrill	-12150
▁trunks	-12151
▁fleeing	-12152
▁musical	-12153
▁nursing	-12154
▁schools	-12155
▁trickle	-12156
▁carolina	-12157
▁churning	-12158
▁improved	-12159
▁broadcast	-12160
▁wrestling	-12161
▁concerning	-12162
▁temporarily	-12163
▁straightening	-12164
je	-12165
eries	-12166
iques	-12167
▁gurg	-12168
▁prox	-12169
▁thri	-12170
▁bryce	-12171
▁pyram	-12172
▁attent	-12173
▁billie	-12174
▁fluffy	-12175
▁glazed	-12176
▁handwr	-12177
▁holder	-12178
▁linger	-12179
▁rasped	-12180
▁rivers	-12181
▁warmer	-12182
▁shirley	-12183
▁ordering	-12184
▁snarling	-12185
▁speeding	-12186
▁stressed	-12187
▁consisted	-12188
▁initially	-12189
▁relentless	-12190
fold	-12191
rice	-12192
kirts	-12193
▁bows	-12194
▁mole	-12195
▁unhe	-12196
▁erase	-12197
▁resur	-12198
▁risky	-12199
▁rover	-12200
angular	-12201
control	-12202
▁chriss	-12203
▁helena	-12204
▁hooves	-12205
▁issued	-12206
▁asshole	-12207
▁drawled	-12208
▁janelle	-12209
▁leopard	-12210
▁leveled	-12211
▁viewing	-12212
▁detected	-12213
▁division	-12214
▁guidance	-12215
▁holidays	-12216
▁insanity	-12217
▁obsessed	-12218
▁pointedly	-12219
▁salvation	-12220
▁satellite	-12221
oni	-12222
oux	-12223
▁eth	-12224
▁lys	-12225
▁mol	-12226
▁sul	-12227
enson	-12228
▁plac	-12229
▁refe	-12230
uction	-12231
▁adela	-12232
▁bened	-12233
▁bowls	-12234
▁paled	-12235
▁perci	-12236
▁tomas	-12237
▁batter	-12238
▁cheers	-12239
▁poised	-12240
▁solved	-12241
▁storms	-12242
▁carries	-12243
▁chained	-12244
▁creased	-12245
▁cricket	-12246
▁peeking	-12247
▁prayers	-12248
▁silvery	-12249
▁skimmed	-12250
▁tourist	-12251
▁borrowed	-12252
▁fastened	-12253
▁inconven	-12254
▁underest	-12255
▁corporate	-12256
▁operating	-12257
▁shrugging	-12258
▁volunteer	-12259
▁forcefully	-12260
spe	-12261
jack	-12262
rain	-12263
▁cos	-12264
▁ire	-12265
▁knit	-12266
▁haste	-12267
▁bursts	-12268
▁clutch	-12269
▁dimmed	-12270
▁faerie	-12271
▁lashed	-12272
▁motive	-12273
▁rebels	-12274
▁balloon	-12275
▁legends	-12276
▁obliged	-12277
▁snoring	-12278
▁thieves	-12279
▁faithful	-12280
▁percival	-12281
▁projects	-12282
▁silenced	-12283
▁trickled	-12284
▁satisfying	-12285
▁represented	-12286
aza	-12287
lid	-12288
akin	-12289
icit	-12290
mund	-12291
▁gia	-12292
ensed	-12293
▁bert	-12294
▁spur	-12295
▁merch	-12296
▁pipes	-12297
▁reson	-12298
pitched	-12299
▁fintan	-12300
▁glimps	-12301
▁halluc	-12302
▁incomp	-12303
▁insign	-12304
▁tastes	-12305
▁tingle	-12306
▁proving	-12307
▁russell	-12308
▁shivers	-12309
▁steered	-12310
▁champion	-12311
▁conceded	-12312
▁doorstep	-12313
▁portrait	-12314
▁rustling	-12315
▁sentinel	-12316
▁immortals	-12317
▁skeptical	-12318
▁possessive	-12319
▁restaurants	-12320
oran	-12321
riel	-12322
▁owns	-12323
▁riot	-12324
legged	-12325
▁baker	-12326
▁drums	-12327
▁feral	-12328
▁hears	-12329
▁incap	-12330
▁irony	-12331
▁tread	-12332
▁ambush	-12333
▁locals	-12334
▁squeak	-12335
▁binding	-12336
▁loading	-12337
▁mankind	-12338
▁reprodu	-12339
▁smeared	-12340
▁wavered	-12341
▁articles	-12342
▁bandages	-12343
▁squinting	-12344
▁historical	-12345
bery	-12346
▁bak	-12347
orous	-12348
▁gree	-12349
▁hats	-12350
▁ther	-12351
▁cance	-12352
▁grove	-12353
▁luxur	-12354
▁phase	-12355
▁pools	-12356
▁diving	-12357
▁reckon	-12358
▁seeped	-12359
▁tangle	-12360
▁transf	-12361
▁welled	-12362
▁cunning	-12363
▁skidded	-12364
▁depended	-12365
▁inwardly	-12366
▁enveloped	-12367
▁carpathian	-12368
igo	-12369
crow	-12370
ggie	-12371
ixon	-12372
▁dyn	-12373
▁hav	-12374
appro	-12375
earth	-12376
style	-12377
▁mara	-12378
▁publ	-12379
▁becca	-12380
▁cathy	-12381
▁funds	-12382
▁tubes	-12383
▁claude	-12384
▁greedy	-12385
▁purely	-12386
▁spears	-12387
▁muscled	-12388
▁samples	-12389
▁smarter	-12390
▁travels	-12391
▁stations	-12392
▁striding	-12393
▁tolerate	-12394
▁associate	-12395
▁highlight	-12396
▁medication	-12397
▁humiliation	-12398
iko	-12399
anky	-12400
▁rho	-12401
▁wad	-12402
ridan	-12403
▁dais	-12404
▁herd	-12405
▁hugs	-12406
▁tate	-12407
aneous	-12408
▁brook	-12409
▁condo	-12410
▁tract	-12411
ustered	-12412
▁milton	-12413
▁reared	-12414
▁boarded	-12415
▁borders	-12416
▁decides	-12417
▁hostess	-12418
▁inhabit	-12419
▁maryann	-12420
▁mingled	-12421
▁stanley	-12422
▁products	-12423
anya	-12424
ctic	-12425
ixed	-12426
▁mul	-12427
▁anya	-12428
▁bats	-12429
▁herr	-12430
▁indo	-12431
▁nape	-12432
▁vile	-12433
▁butch	-12434
▁cheat	-12435
▁eleph	-12436
▁fewer	-12437
▁paras	-12438
▁parch	-12439
▁collin	-12440
▁exting	-12441
▁giants	-12442
▁integr	-12443
▁scouts	-12444
▁seldon	-12445
▁cheated	-12446
▁enforce	-12447
▁reserve	-12448
▁stealth	-12449
▁streaks	-12450
▁clapping	-12451
▁rattling	-12452
▁widening	-12453
▁comforted	-12454
▁crackling	-12455
▁ignorance	-12456
▁villagers	-12457
▁accusation	-12458
▁maintenance	-12459
▁nervousness	-12460
▁confrontation	-12461
▁sophisticated	-12462
▁transformation	-12463
ii	-12464
lode	-12465
neys	-12466
▁gad	-12467
▁luk	-12468
▁rud	-12469
▁unz	-12470
bbles	-12471
▁itch	-12472
ailing	-12473
▁elite	-12474
▁gabby	-12475
▁grady	-12476
▁stenn	-12477
▁calend	-12478
▁gloria	-12479
▁polish	-12480
▁resume	-12481
▁skelet	-12482
▁zipper	-12483
▁bulging	-12484
▁pajamas	-12485
▁planets	-12486
▁poisoned	-12487
▁stairway	-12488
▁installed	-12489
▁perplexed	-12490
▁protector	-12491
▁scrambling	-12492
▁wilderness	-12493
alo	-12494
road	-12495
▁dot	-12496
▁sme	-12497
atics	-12498
▁hark	-12499
▁keir	-12500
▁lest	-12501
alling	-12502
people	-12503
▁canoe	-12504
▁plump	-12505
▁sneer	-12506
▁arnold	-12507
▁haired	-12508
▁porcel	-12509
▁briskly	-12510
▁clement	-12511
▁knotted	-12512
▁punches	-12513
something	-12514
▁agreeing	-12515
▁parallel	-12516
▁strictly	-12517
▁locations	-12518
▁worthless	-12519
▁reluctance	-12520
▁ic	-12521
stru	-12522
acent	-12523
maker	-12524
state	-12525
▁benn	-12526
▁neon	-12527
▁nova	-12528
arming	-12529
▁basha	-12530
▁bonds	-12531
▁erica	-12532
▁evang	-12533
▁attach	-12534
▁bricks	-12535
▁hangar	-12536
▁maddox	-12537
▁seldom	-12538
▁harmony	-12539
▁precaut	-12540
▁grandson	-12541
▁outright	-12542
▁arrogance	-12543
▁favourite	-12544
▁hollywood	-12545
▁inspected	-12546
▁librarian	-12547
▁adventures	-12548
▁straighten	-12549
▁confidently	-12550
▁effortlessly	-12551
abe	-12552
uar	-12553
gage	-12554
▁hul	-12555
▁kow	-12556
▁mos	-12557
▁pey	-12558
▁sue	-12559
bling	-12560
ouses	-12561
▁diso	-12562
▁aless	-12563
▁teres	-12564
essions	-12565
▁danica	-12566
▁futile	-12567
▁ornate	-12568
▁potent	-12569
▁willed	-12570
▁admiral	-12571
▁circuit	-12572
▁sources	-12573
▁succumb	-12574
▁threads	-12575
▁destined	-12576
▁maneuver	-12577
▁radiated	-12578
▁admitting	-12579
▁outskirts	-12580
▁suppressed	-12581
yo	-12582
pad	-12583
idly	-12584
umpy	-12585
wend	-12586
▁ane	-12587
▁umm	-12588
ietta	-12589
▁bulb	-12590
▁clad	-12591
▁drac	-12592
▁alexa	-12593
▁hutch	-12594
▁mourn	-12595
▁pains	-12596
▁rival	-12597
▁attire	-12598
▁barren	-12599
▁lifest	-12600
▁predic	-12601
▁runway	-12602
▁giggles	-12603
▁glimmer	-12604
▁keirran	-12605
▁reeling	-12606
▁twenties	-12607
▁cardboard	-12608
▁continent	-12609
▁breathtaking	-12610
▁incredulously	-12611
eme	-12612
oria	-12613
▁caps	-12614
▁hust	-12615
▁bount	-12616
▁deter	-12617
▁fatal	-12618
▁yacht	-12619
▁alyssa	-12620
▁ambass	-12621
▁devlin	-12622
▁fished	-12623
▁habits	-12624
▁katryn	-12625
▁wesley	-12626
ifferent	-12627
▁benches	-12628
▁bounded	-12629
▁clearer	-12630
▁insects	-12631
▁killers	-12632
▁prosper	-12633
▁squared	-12634
▁twirled	-12635
▁distaste	-12636
▁employer	-12637
▁serenity	-12638
▁penthouse	-12639
▁porcelain	-12640
▁remainder	-12641
▁unnoticed	-12642
▁vibrating	-12643
▁disapproval	-12644
▁enthusiastic	-12645
▁expectations	-12646
llie	-12647
▁bex	-12648
▁gru	-12649
▁wig	-12650
fight	-12651
▁horm	-12652
▁orde	-12653
▁poin	-12654
▁tons	-12655
inates	-12656
phones	-12657
▁appra	-12658
▁gwend	-12659
▁bailey	-12660
▁bowing	-12661
▁hotter	-12662
▁justus	-12663
▁tranqu	-12664
▁wagons	-12665
▁widely	-12666
▁devoted	-12667
▁flights	-12668
▁ghostly	-12669
▁january	-12670
▁plainly	-12671
▁tongues	-12672
▁trenton	-12673
▁warrant	-12674
▁wizards	-12675
▁benedict	-12676
▁embedded	-12677
▁efficient	-12678
▁reactions	-12679
▁businesses	-12680
▁contemplated	-12681
nek	-12682
girl	-12683
ilyn	-12684
usal	-12685
▁hyd	-12686
cases	-12687
▁chal	-12688
▁hugo	-12689
▁ramb	-12690
▁rape	-12691
isting	-12692
ricted	-12693
▁meets	-12694
▁param	-12695
▁piper	-12696
▁cammie	-12697
▁counts	-12698
▁curses	-12699
▁echoes	-12700
▁evapor	-12701
▁impass	-12702
▁morris	-12703
▁teresa	-12704
▁defined	-12705
▁stadium	-12706
▁achieved	-12707
▁cheering	-12708
▁crackled	-12709
▁cushions	-12710
▁inspired	-12711
▁nickname	-12712
▁preserve	-12713
▁resident	-12714
▁followers	-12715
▁impossibly	-12716
▁irritating	-12717
▁leadership	-12718
isp	-12719
www	-12720
corn	-12721
▁mast	-12722
▁pins	-12723
▁rede	-12724
▁shap	-12725
▁thee	-12726
▁wins	-12727
▁dislo	-12728
▁grill	-12729
▁radar	-12730
▁sized	-12731
▁widen	-12732
▁aerlid	-12733
▁patron	-12734
▁stacks	-12735
▁unease	-12736
▁melinda	-12737
▁proport	-12738
▁wincing	-12739
▁juliette	-12740
▁subsided	-12741
▁infection	-12742
▁imprisoned	-12743
▁uncontrollably	-12744
bled	-12745
loyd	-12746
uffs	-12747
rored	-12748
▁flur	-12749
▁gina	-12750
▁unra	-12751
rowing	-12752
▁binoc	-12753
▁bland	-12754
▁cling	-12755
▁cocky	-12756
▁lloyd	-12757
▁moans	-12758
▁sites	-12759
▁tench	-12760
▁vomit	-12761
▁buckle	-12762
▁cullen	-12763
▁norian	-12764
▁soared	-12765
▁soothe	-12766
▁sprung	-12767
▁awfully	-12768
▁dangled	-12769
▁narasan	-12770
▁slicing	-12771
▁slumber	-12772
▁tickled	-12773
▁trading	-12774
▁drenched	-12775
▁sinister	-12776
▁sterling	-12777
▁weekends	-12778
▁descending	-12779
▁manipulate	-12780
▁travelling	-12781
▁understands	-12782
gown	-12783
izer	-12784
rael	-12785
uate	-12786
▁arn	-12787
riers	-12788
▁dose	-12789
▁synd	-12790
▁tilt	-12791
inable	-12792
▁quizz	-12793
▁wince	-12794
▁harris	-12795
▁lazily	-12796
▁maiden	-12797
▁petite	-12798
▁poster	-12799
▁prints	-12800
▁sprout	-12801
▁clawing	-12802
▁gregory	-12803
▁scolded	-12804
▁benefits	-12805
▁envision	-12806
▁lorraine	-12807
▁mirrored	-12808
▁shielded	-12809
▁villages	-12810
▁anonymous	-12811
▁photographer	-12812
bod	-12813
iors	-12814
olph	-12815
wife	-12816
▁gus	-12817
▁mav	-12818
ended	-12819
roken	-12820
▁goat	-12821
▁loan	-12822
▁ouch	-12823
▁tina	-12824
gering	-12825
izable	-12826
▁fract	-12827
▁lucan	-12828
▁uncom	-12829
▁poorly	-12830
▁twinge	-12831
▁enchant	-12832
▁merrill	-12833
▁nuclear	-12834
▁airplane	-12835
▁boulders	-12836
▁crystals	-12837
▁expanded	-12838
▁scotland	-12839
▁sneakers	-12840
▁sniffing	-12841
▁stallion	-12842
▁fantasies	-12843
▁interpret	-12844
▁waistband	-12845
▁whistling	-12846
▁chattering	-12847
▁intersection	-12848
iope	-12849
first	-12850
▁kurt	-12851
▁benny	-12852
▁crook	-12853
▁hayes	-12854
▁noisy	-12855
▁petty	-12856
▁teens	-12857
▁approx	-12858
▁barnes	-12859
▁boomed	-12860
▁bounce	-12861
▁pulsed	-12862
▁digital	-12863
▁enterpr	-12864
▁peeling	-12865
▁plummet	-12866
▁rebuild	-12867
▁divorced	-12868
▁opportun	-12869
▁terrance	-12870
▁whirling	-12871
▁miniature	-12872
▁shielding	-12873
▁sincerely	-12874
▁binoculars	-12875
▁reappeared	-12876
▁strawberry	-12877
anni	-12878
keys	-12879
llor	-12880
▁twe	-12881
attan	-12882
icker	-12883
▁hazy	-12884
▁idly	-12885
▁leif	-12886
▁phen	-12887
▁vacu	-12888
▁yank	-12889
teenth	-12890
▁array	-12891
▁mists	-12892
▁zayne	-12893
hundred	-12894
▁bikini	-12895
▁jayden	-12896
▁sliver	-12897
▁strewn	-12898
▁turkey	-12899
▁ambrose	-12900
▁asphalt	-12901
▁implied	-12902
▁rearview	-12903
▁rewarded	-12904
▁wretched	-12905
▁darkening	-12906
▁obsession	-12907
▁apologetic	-12908
▁collapsing	-12909
▁grandchild	-12910
▁devastating	-12911
▁indifferent	-12912
▁communications	-12913
ettle	-12914
hanne	-12915
urous	-12916
▁craz	-12917
▁manh	-12918
▁pans	-12919
▁poll	-12920
▁exert	-12921
▁groin	-12922
▁wraps	-12923
▁agenda	-12924
▁booked	-12925
▁caesar	-12926
▁tomato	-12927
▁chatted	-12928
▁darkest	-12929
▁drugged	-12930
▁forests	-12931
▁hitched	-12932
▁jehanne	-12933
▁manfred	-12934
▁evelinde	-12935
▁facebook	-12936
▁pancakes	-12937
▁scowling	-12938
▁priestess	-12939
▁radiating	-12940
▁stillness	-12941
▁strengthe	-12942
▁transition	-12943
▁whereabouts	-12944
▁introduction	-12945
▁shadowhunters	-12946
gle	-12947
gne	-12948
gom	-12949
mpt	-12950
roc	-12951
cede	-12952
▁gob	-12953
▁ion	-12954
iency	-12955
ierra	-12956
leigh	-12957
rings	-12958
stage	-12959
▁laps	-12960
cerity	-12961
ilized	-12962
▁hethe	-12963
▁loser	-12964
▁dexter	-12965
▁editor	-12966
▁evenly	-12967
▁franco	-12968
▁hinges	-12969
▁miguel	-12970
▁rained	-12971
▁theran	-12972
▁zipped	-12973
▁carving	-12974
▁enlight	-12975
▁nikolai	-12976
▁cradling	-12977
▁executed	-12978
▁hallways	-12979
▁sheridan	-12980
▁theories	-12981
▁motioning	-12982
▁twinkling	-12983
▁boundaries	-12984
▁pleasantly	-12985
andy	-12986
arel	-12987
omen	-12988
▁ore	-12989
brown	-12990
▁weed	-12991
▁baked	-12992
respect	-12993
version	-12994
▁apples	-12995
▁chills	-12996
▁inject	-12997
▁ordeal	-12998
▁puffed	-12999
▁scents	-13000
▁shells	-13001
▁strung	-13002
▁undone	-13003
▁colette	-13004
▁invaded	-13005
▁opposed	-13006
▁ticking	-13007
▁employed	-13008
▁horribly	-13009
▁unmoving	-13010
▁reasoning	-13011
▁snickered	-13012
▁impatience	-13013
▁resentment	-13014
▁defensively	-13015
▁ck	-13016
hers	-13017
▁hou	-13018
▁paw	-13019
aders	-13020
▁fret	-13021
▁hike	-13022
▁pean	-13023
▁sane	-13024
▁tart	-13025
▁teeg	-13026
▁caval	-13027
▁seeds	-13028
▁vince	-13029
▁consol	-13030
▁convey	-13031
▁flavor	-13032
▁global	-13033
▁graeme	-13034
▁landon	-13035
▁bouquet	-13036
▁conserv	-13037
▁footage	-13038
▁longbow	-13039
▁pillars	-13040
▁randall	-13041
▁backside	-13042
▁cocktail	-13043
▁crouching	-13044
▁sweetness	-13045
▁confirmation	-13046
▁considerable	-13047
▁thanksgiving	-13048
who	-13049
avan	-13050
▁owl	-13051
ansas	-13052
brook	-13053
plets	-13054
▁wade	-13055
▁arnie	-13056
▁eaves	-13057
▁chunks	-13058
▁easter	-13059
▁extend	-13060
▁harold	-13061
▁mercen	-13062
▁selene	-13063
▁wailed	-13064
▁chester	-13065
▁federal	-13066
▁maxwell	-13067
▁popcorn	-13068
▁glimpsed	-13069
▁mercedes	-13070
▁rippling	-13071
▁semester	-13072
▁sincerity	-13073
▁apartments	-13074
▁innocently	-13075
▁silhouette	-13076
▁truthfully	-13077
ami	-13078
cles	-13079
onia	-13080
thea	-13081
▁rio	-13082
▁vod	-13083
chess	-13084
there	-13085
▁jett	-13086
▁sift	-13087
▁dishe	-13088
▁infer	-13089
▁sympt	-13090
▁coated	-13091
▁diplom	-13092
▁dispos	-13093
▁falcon	-13094
▁grocer	-13095
▁tumble	-13096
▁watery	-13097
▁leonard	-13098
▁cabinets	-13099
▁civilian	-13100
▁collided	-13101
▁fighters	-13102
▁ignition	-13103
▁predicted	-13104
▁travelled	-13105
▁conspiracy	-13106
▁gratefully	-13107
▁overlooked	-13108
bes	-13109
hop	-13110
rap	-13111
mann	-13112
phed	-13113
rena	-13114
vial	-13115
▁ira	-13116
▁raf	-13117
overs	-13118
▁brat	-13119
▁germ	-13120
▁gosh	-13121
▁hack	-13122
▁puss	-13123
ivated	-13124
▁adams	-13125
▁desol	-13126
▁stamp	-13127
▁waits	-13128
▁busted	-13129
▁eldest	-13130
▁glossy	-13131
▁jerich	-13132
▁mature	-13133
▁queens	-13134
▁salute	-13135
▁tragic	-13136
▁compare	-13137
▁fathers	-13138
▁montgom	-13139
▁supreme	-13140
▁tingled	-13141
▁bubbling	-13142
▁infinite	-13143
▁reliable	-13144
▁requires	-13145
▁lifestyle	-13146
▁luxurious	-13147
▁officials	-13148
▁permitted	-13149
▁remarkably	-13150
ccer	-13151
hell	-13152
itage	-13153
▁blog	-13154
▁gill	-13155
steady	-13156
▁hedge	-13157
▁hound	-13158
▁reads	-13159
▁tiles	-13160
▁behavi	-13161
▁fathom	-13162
▁gansey	-13163
▁grazed	-13164
▁ironic	-13165
▁kimber	-13166
▁petals	-13167
▁tapest	-13168
▁mundane	-13169
▁severed	-13170
▁daydream	-13171
▁ignorant	-13172
▁glistened	-13173
▁necessity	-13174
▁devastated	-13175
▁investigator	-13176
ryl	-13177
kill	-13178
udes	-13179
▁eer	-13180
cully	-13181
itate	-13182
osity	-13183
▁beet	-13184
▁unim	-13185
▁zook	-13186
▁prost	-13187
▁resid	-13188
ciating	-13189
▁brakes	-13190
▁elaine	-13191
▁marius	-13192
▁discern	-13193
▁stubble	-13194
▁ridcully	-13195
▁williams	-13196
▁flustered	-13197
▁proximity	-13198
▁splashing	-13199
▁shadowhunter	-13200
wa	-13201
huh	-13202
good	-13203
▁ahh	-13204
▁pau	-13205
▁assa	-13206
▁loaf	-13207
▁stim	-13208
▁betsy	-13209
▁hangs	-13210
▁mckie	-13211
▁noses	-13212
▁crouch	-13213
▁darkly	-13214
▁housed	-13215
▁rugged	-13216
▁spiked	-13217
▁barrett	-13218
▁empress	-13219
▁enraged	-13220
▁massage	-13221
▁rainbow	-13222
▁steward	-13223
▁thrusts	-13224
▁quivered	-13225
▁reasoned	-13226
▁consuming	-13227
▁intending	-13228
▁prominent	-13229
▁rejection	-13230
▁compromise	-13231
▁delicately	-13232
▁inspiration	-13233
▁disconnected	-13234
acc	-13235
bid	-13236
wny	-13237
▁foe	-13238
▁jug	-13239
▁isle	-13240
iselle	-13241
▁fling	-13242
▁salty	-13243
▁stere	-13244
▁vamps	-13245
▁vodka	-13246
untered	-13247
▁absorb	-13248
▁apollo	-13249
▁balled	-13250
▁cathed	-13251
▁growls	-13252
▁mating	-13253
▁sullen	-13254
▁tremor	-13255
▁croaked	-13256
▁georgia	-13257
▁markman	-13258
▁colorado	-13259
▁outburst	-13260
▁reverend	-13261
▁unsteady	-13262
▁criminals	-13263
▁nightgown	-13264
▁parchment	-13265
▁convention	-13266
▁disappoint	-13267
▁laboratory	-13268
▁preparations	-13269
oi	-13270
ele	-13271
vie	-13272
ndan	-13273
term	-13274
▁sie	-13275
▁zac	-13276
▁intr	-13277
▁vein	-13278
▁wits	-13279
▁abund	-13280
▁chaol	-13281
▁drill	-13282
▁enfor	-13283
▁giddy	-13284
▁posts	-13285
▁salon	-13286
▁burger	-13287
▁downed	-13288
▁royden	-13289
▁soccer	-13290
▁sorted	-13291
▁duchess	-13292
▁farmers	-13293
▁propose	-13294
▁stewart	-13295
▁surgeon	-13296
▁explored	-13297
▁fabulous	-13298
▁forearms	-13299
▁geoffrey	-13300
▁graduate	-13301
▁heritage	-13302
▁scrubbed	-13303
▁shadowed	-13304
▁situated	-13305
▁teleport	-13306
▁sauntered	-13307
▁stretches	-13308
▁apprentice	-13309
▁intriguing	-13310
▁underwater	-13311
▁breathlessly	-13312
▁investigating	-13313
dri	-13314
oln	-13315
order	-13316
▁goin	-13317
▁jost	-13318
▁plun	-13319
▁sult	-13320
▁yuri	-13321
▁tuned	-13322
ography	-13323
▁addict	-13324
▁kyrian	-13325
▁packet	-13326
▁ripple	-13327
▁thayer	-13328
▁brianna	-13329
▁consume	-13330
▁lucifer	-13331
▁nibbled	-13332
▁percept	-13333
▁serpent	-13334
▁shatter	-13335
▁twinkle	-13336
▁calendar	-13337
▁doubtful	-13338
▁restroom	-13339
▁umbrella	-13340
▁admission	-13341
▁hammering	-13342
▁tentative	-13343
▁investment	-13344
▁resignation	-13345
oga	-13346
spr	-13347
ldor	-13348
post	-13349
tale	-13350
zona	-13351
▁mog	-13352
▁yol	-13353
asive	-13354
osaur	-13355
▁flap	-13356
▁kall	-13357
▁mina	-13358
▁sket	-13359
▁styl	-13360
▁swig	-13361
▁tamp	-13362
▁unsc	-13363
▁vale	-13364
enance	-13365
ington	-13366
minute	-13367
▁arose	-13368
▁opera	-13369
▁spoil	-13370
eration	-13371
▁advise	-13372
▁beacon	-13373
▁dahlia	-13374
▁hiking	-13375
▁offend	-13376
▁profit	-13377
▁psycho	-13378
▁roamed	-13379
▁russia	-13380
▁arching	-13381
▁arizona	-13382
▁brennan	-13383
▁brushes	-13384
▁solange	-13385
▁whereas	-13386
▁detached	-13387
▁intercom	-13388
▁kathleen	-13389
▁knitting	-13390
▁extensive	-13391
▁miserably	-13392
▁powerless	-13393
▁primitive	-13394
▁stuttered	-13395
▁biological	-13396
▁brightness	-13397
▁evangeline	-13398
▁industrial	-13399
▁osc	-13400
▁sis	-13401
▁tir	-13402
icent	-13403
quate	-13404
▁rags	-13405
called	-13406
veling	-13407
▁coron	-13408
▁genes	-13409
▁incor	-13410
▁jaxon	-13411
▁tracy	-13412
ensions	-13413
▁bickel	-13414
▁lennek	-13415
▁poetry	-13416
▁reaper	-13417
▁snatch	-13418
▁strips	-13419
▁churned	-13420
▁dreaded	-13421
▁definite	-13422
▁filtered	-13423
▁protocol	-13424
▁shepherd	-13425
▁swiveled	-13426
▁annabelle	-13427
▁defending	-13428
▁imaginary	-13429
▁intellect	-13430
▁restrained	-13431
och	-13432
por	-13433
drop	-13434
olae	-13435
prot	-13436
▁nov	-13437
▁rou	-13438
court	-13439
▁coma	-13440
▁esme	-13441
▁hans	-13442
▁neal	-13443
▁rhun	-13444
▁unch	-13445
acking	-13446
resist	-13447
▁advis	-13448
▁briec	-13449
▁broom	-13450
▁dayan	-13451
▁haley	-13452
▁tying	-13453
▁budget	-13454
▁jersey	-13455
▁peyton	-13456
▁precar	-13457
▁therap	-13458
▁throng	-13459
▁bidding	-13460
▁bracing	-13461
▁scenery	-13462
▁emphasis	-13463
▁sequence	-13464
▁steadied	-13465
▁stocking	-13466
▁tattered	-13467
▁languages	-13468
▁sputtered	-13469
▁unusually	-13470
▁antonietta	-13471
▁performing	-13472
▁separating	-13473
era	-13474
aria	-13475
etra	-13476
high	-13477
pple	-13478
size	-13479
oleum	-13480
▁astr	-13481
▁sins	-13482
screen	-13483
▁devin	-13484
▁maple	-13485
▁prone	-13486
▁unrel	-13487
▁whine	-13488
▁drying	-13489
▁jaguar	-13490
▁rattle	-13491
▁glinted	-13492
▁defiance	-13493
▁evenings	-13494
▁unwanted	-13495
▁yearning	-13496
▁crumbling	-13497
▁observing	-13498
▁sprawling	-13499
▁settlement	-13500
uki	-13501
iots	-13502
look	-13503
▁eug	-13504
▁kae	-13505
▁naz	-13506
▁nim	-13507
aired	-13508
blins	-13509
vable	-13510
▁dank	-13511
▁jing	-13512
▁slot	-13513
riages	-13514
▁draws	-13515
▁immob	-13516
▁prett	-13517
▁swirl	-13518
▁veter	-13519
▁welsh	-13520
▁greasy	-13521
▁mathem	-13522
▁newcom	-13523
▁scotch	-13524
▁chandel	-13525
▁restore	-13526
▁emerging	-13527
▁frequent	-13528
▁monitors	-13529
▁passport	-13530
▁suppress	-13531
▁selection	-13532
▁footprints	-13533
▁essentially	-13534
rup	-13535
zel	-13536
▁bio	-13537
▁sye	-13538
adian	-13539
brina	-13540
ileen	-13541
think	-13542
▁dael	-13543
▁darn	-13544
▁dors	-13545
angled	-13546
▁bonus	-13547
▁nicer	-13548
▁pinch	-13549
▁saffi	-13550
▁allows	-13551
▁coiled	-13552
▁errand	-13553
▁sector	-13554
▁sergio	-13555
▁bennett	-13556
▁gliding	-13557
▁inappro	-13558
▁lacking	-13559
▁nicolae	-13560
▁prodded	-13561
▁sabrina	-13562
▁seeping	-13563
▁sprayed	-13564
▁technical	-13565
din	-13566
tie	-13567
ghan	-13568
rich	-13569
rows	-13570
stop	-13571
▁alm	-13572
▁bef	-13573
▁hue	-13574
▁kur	-13575
▁riv	-13576
▁blat	-13577
▁evac	-13578
▁lids	-13579
▁mend	-13580
▁vase	-13581
stered	-13582
▁sadie	-13583
▁soren	-13584
▁texts	-13585
▁judged	-13586
▁perpet	-13587
▁scrape	-13588
▁squeal	-13589
▁vanish	-13590
▁bumping	-13591
▁creator	-13592
▁intoxic	-13593
▁pitcher	-13594
▁redhead	-13595
▁remarks	-13596
▁ribbons	-13597
▁sailors	-13598
▁signing	-13599
▁sparkle	-13600
▁wrought	-13601
▁chilling	-13602
▁crossbow	-13603
▁gigantic	-13604
▁uneasily	-13605
▁appointed	-13606
▁groceries	-13607
▁momentary	-13608
▁delivering	-13609
▁montgomery	-13610
▁smoldering	-13611
▁significance	-13612
bie	-13613
ocr	-13614
cers	-13615
opes	-13616
star	-13617
▁mcg	-13618
▁sew	-13619
abled	-13620
ookie	-13621
press	-13622
▁blan	-13623
▁chis	-13624
▁chop	-13625
▁defl	-13626
▁idle	-13627
▁kold	-13628
atures	-13629
ptions	-13630
▁album	-13631
▁peaks	-13632
▁perch	-13633
▁theme	-13634
▁torak	-13635
▁benson	-13636
▁dillon	-13637
▁harass	-13638
▁loosen	-13639
▁masked	-13640
▁merran	-13641
▁metaph	-13642
▁mocked	-13643
▁serene	-13644
▁shelby	-13645
▁baffled	-13646
▁curving	-13647
▁lincoln	-13648
▁methods	-13649
▁strateg	-13650
▁streams	-13651
▁dazzling	-13652
▁horrific	-13653
▁halloween	-13654
▁ambassador	-13655
▁straighter	-13656
▁considerably	-13657
ckey	-13658
▁gale	-13659
▁hobb	-13660
▁mute	-13661
arship	-13662
utions	-13663
▁clasp	-13664
▁crust	-13665
▁deplo	-13666
▁goble	-13667
dington	-13668
▁cereal	-13669
▁climax	-13670
▁fisted	-13671
▁sorgan	-13672
▁cologne	-13673
▁deronda	-13674
▁dischar	-13675
▁dodging	-13676
▁ruffled	-13677
▁swooped	-13678
▁tactics	-13679
▁european	-13680
▁hamilton	-13681
▁missions	-13682
▁wrinkles	-13683
▁disintegr	-13684
▁mechanism	-13685
▁developing	-13686
▁kidnapping	-13687
▁interrogation	-13688
acco	-13689
skin	-13690
wall	-13691
▁kip	-13692
frame	-13693
icity	-13694
▁dimp	-13695
▁fert	-13696
▁goth	-13697
▁kelp	-13698
▁babys	-13699
▁lukas	-13700
▁mirac	-13701
▁pines	-13702
▁plush	-13703
▁scrub	-13704
rolling	-13705
▁boiled	-13706
▁camden	-13707
▁endeav	-13708
▁expans	-13709
▁harvey	-13710
▁midday	-13711
▁viewed	-13712
▁african	-13713
▁conquer	-13714
▁crammed	-13715
▁naughty	-13716
▁plaster	-13717
▁countess	-13718
▁entryway	-13719
▁hillside	-13720
▁solitary	-13721
▁exclusive	-13722
▁properties	-13723
▁acquaintance	-13724
cet	-13725
nar	-13726
tly	-13727
hale	-13728
▁nev	-13729
▁typ	-13730
▁inad	-13731
▁lads	-13732
▁luth	-13733
▁pike	-13734
▁vend	-13735
▁actor	-13736
▁allen	-13737
▁evans	-13738
▁jerks	-13739
▁monty	-13740
▁rhona	-13741
▁spied	-13742
▁tegan	-13743
founded	-13744
iseries	-13745
▁amidst	-13746
▁blurry	-13747
▁cruelt	-13748
▁graves	-13749
▁lennox	-13750
▁recoll	-13751
▁arrives	-13752
▁carolyn	-13753
▁cruiser	-13754
▁heights	-13755
▁regrets	-13756
▁bachelor	-13757
▁chandler	-13758
▁memorial	-13759
▁mourning	-13760
▁nighting	-13761
▁severely	-13762
▁smashing	-13763
▁attackers	-13764
▁explosive	-13765
▁resisting	-13766
▁assumption	-13767
▁miniseries	-13768
▁passageway	-13769
▁protruding	-13770
▁conclusions	-13771
▁immortality	-13772
▁granddaughter	-13773
fo	-13774
yx	-13775
lley	-13776
▁kas	-13777
▁kif	-13778
▁voy	-13779
lodek	-13780
▁bour	-13781
▁gash	-13782
▁lamb	-13783
▁plag	-13784
▁secl	-13785
▁solo	-13786
▁vows	-13787
▁zeal	-13788
▁india	-13789
▁secre	-13790
▁speck	-13791
▁tails	-13792
▁woven	-13793
▁creamy	-13794
▁hurric	-13795
▁jacobs	-13796
▁microw	-13797
▁twists	-13798
▁wedged	-13799
▁bluntly	-13800
▁earthqu	-13801
▁fearing	-13802
▁jogging	-13803
▁mexican	-13804
▁overall	-13805
▁princes	-13806
▁subdued	-13807
▁brooding	-13808
▁mushroom	-13809
▁software	-13810
▁taunting	-13811
▁blackmail	-13812
▁honorable	-13813
▁stupidity	-13814
▁discipline	-13815
▁inquisitor	-13816
▁refreshing	-13817
▁sheepishly	-13818
▁subconscious	-13819
lson	-13820
orns	-13821
rawn	-13822
rics	-13823
then	-13824
cause	-13825
inery	-13826
sight	-13827
▁goof	-13828
▁mons	-13829
▁nana	-13830
▁palp	-13831
▁reno	-13832
▁missy	-13833
▁wakes	-13834
▁consum	-13835
▁cradle	-13836
▁jabbed	-13837
▁kowals	-13838
▁sherry	-13839
▁wlodek	-13840
▁adorned	-13841
▁delayed	-13842
▁lendill	-13843
▁nuzzled	-13844
hetically	-13845
▁impending	-13846
▁manhattan	-13847
▁definition	-13848
▁hysterical	-13849
▁positively	-13850
▁screeching	-13851
▁volunteers	-13852
▁substantial	-13853
enn	-13854
eria	-13855
inch	-13856
oons	-13857
opia	-13858
thia	-13859
▁dax	-13860
doors	-13861
▁bicy	-13862
▁calf	-13863
▁demo	-13864
▁lain	-13865
▁shan	-13866
▁tidy	-13867
ficial	-13868
▁bulky	-13869
▁canal	-13870
▁chewy	-13871
▁jelly	-13872
▁spies	-13873
owering	-13874
▁gloved	-13875
▁income	-13876
▁novels	-13877
▁robbed	-13878
▁spying	-13879
▁unpred	-13880
▁dangers	-13881
▁hammond	-13882
▁heating	-13883
▁housing	-13884
▁jeopard	-13885
▁montana	-13886
▁creaking	-13887
▁frighten	-13888
▁kowalski	-13889
▁psychiat	-13890
▁sessions	-13891
▁downright	-13892
▁fireworks	-13893
▁pendleton	-13894
▁replacing	-13895
▁disappears	-13896
▁mischievous	-13897
▁illuminating	-13898
▁ridiculously	-13899
▁dots	-13900
▁eris	-13901
▁peep	-13902
▁snug	-13903
ciless	-13904
▁accum	-13905
▁beers	-13906
▁crumb	-13907
▁dough	-13908
▁excru	-13909
▁moons	-13910
▁rigel	-13911
▁archie	-13912
▁audrey	-13913
▁garcia	-13914
▁phoned	-13915
▁puppet	-13916
cription	-13917
▁earning	-13918
▁quieter	-13919
▁scandal	-13920
▁hammered	-13921
▁objected	-13922
▁rosewood	-13923
▁stuffing	-13924
▁thanking	-13925
▁advancing	-13926
▁contented	-13927
▁merciless	-13928
▁nightingale	-13929
ju	-13930
bol	-13931
cake	-13932
oked	-13933
wide	-13934
▁ley	-13935
▁rut	-13936
▁thw	-13937
▁aden	-13938
▁eval	-13939
▁lahn	-13940
▁peck	-13941
▁poke	-13942
▁sams	-13943
▁sant	-13944
rathen	-13945
▁aggra	-13946
▁chalk	-13947
▁elant	-13948
▁eliot	-13949
▁villa	-13950
ication	-13951
▁filing	-13952
▁sabine	-13953
▁charred	-13954
▁cheerle	-13955
▁frankie	-13956
▁royalty	-13957
▁subsequ	-13958
▁bloodied	-13959
▁grounded	-13960
▁guarante	-13961
▁mumbling	-13962
▁supplied	-13963
▁weighing	-13964
▁cathedral	-13965
▁unpredict	-13966
▁calculated	-13967
▁explosions	-13968
▁staggering	-13969
▁intensified	-13970
▁possessions	-13971
bul	-13972
nae	-13973
sch	-13974
ghus	-13975
incl	-13976
▁sau	-13977
hound	-13978
▁aran	-13979
▁lava	-13980
▁mete	-13981
▁teet	-13982
▁wavy	-13983
isters	-13984
istine	-13985
ppling	-13986
▁cease	-13987
▁demet	-13988
▁docks	-13989
▁glide	-13990
▁orbit	-13991
▁raspy	-13992
▁scorp	-13993
▁seize	-13994
▁shyly	-13995
▁steer	-13996
▁susie	-13997
▁unfor	-13998
▁vicki	-13999
▁zeina	-14000
▁crazed	-14001
▁denver	-14002
▁ingred	-14003
▁obsess	-14004
▁patric	-14005
▁survey	-14006
▁tammie	-14007
▁viking	-14008
▁largely	-14009
▁trudged	-14010
▁earrings	-14011
▁inserted	-14012
▁irresist	-14013
▁peripher	-14014
ifications	-14015
▁deception	-14016
▁maneuvered	-14017
▁examination	-14018
▁excruciating	-14019
hi	-14020
yk	-14021
bru	-14022
elo	-14023
▁cau	-14024
being	-14025
class	-14026
icken	-14027
▁bony	-14028
▁cows	-14029
▁dirk	-14030
▁rhea	-14031
▁ripe	-14032
▁scab	-14033
▁sill	-14034
▁syll	-14035
ocused	-14036
▁appar	-14037
▁mines	-14038
▁peril	-14039
▁puffy	-14040
▁bounty	-14041
▁exhale	-14042
▁frigid	-14043
▁groans	-14044
▁minded	-14045
▁muzzle	-14046
▁vacuum	-14047
▁vortex	-14048
▁deckard	-14049
▁hrathen	-14050
▁risking	-14051
▁animated	-14052
▁heavenly	-14053
▁clipboard	-14054
▁emanating	-14055
▁particles	-14056
▁triggered	-14057
▁discovering	-14058
▁contemplating	-14059
pow	-14060
part	-14061
ulsed	-14062
▁daze	-14063
▁pamp	-14064
▁polo	-14065
▁quer	-14066
▁wast	-14067
unches	-14068
▁azale	-14069
▁cater	-14070
▁kadie	-14071
▁merit	-14072
▁theft	-14073
▁torin	-14074
through	-14075
▁aislin	-14076
▁aleria	-14077
▁daneel	-14078
▁lowers	-14079
▁stakes	-14080
▁traded	-14081
▁trauma	-14082
▁tricky	-14083
▁turner	-14084
▁broadly	-14085
▁buddies	-14086
▁convert	-14087
▁drivers	-14088
▁install	-14089
▁latched	-14090
▁liberty	-14091
▁minimum	-14092
▁probing	-14093
▁raymond	-14094
▁tobacco	-14095
▁torrent	-14096
▁athletic	-14097
▁fearghus	-14098
▁smoothing	-14099
▁mentioning	-14100
▁mesmerized	-14101
▁persephone	-14102
▁structures	-14103
▁billionaire	-14104
▁brotherhood	-14105
▁meaningless	-14106
ipe	-14107
ucc	-14108
wel	-14109
isms	-14110
mons	-14111
plic	-14112
▁bea	-14113
▁jog	-14114
books	-14115
othed	-14116
▁asia	-14117
▁cruz	-14118
▁info	-14119
▁ipid	-14120
igible	-14121
▁basin	-14122
▁galen	-14123
▁gypsy	-14124
▁hasty	-14125
▁holog	-14126
▁multi	-14127
▁quent	-14128
▁viggo	-14129
▁astrid	-14130
▁buffet	-14131
▁combed	-14132
▁dancer	-14133
▁discou	-14134
▁gracie	-14135
▁impuls	-14136
▁rooted	-14137
▁snaked	-14138
▁stains	-14139
▁tackle	-14140
▁typing	-14141
▁goblins	-14142
▁barefoot	-14143
▁confined	-14144
▁declined	-14145
▁remotely	-14146
▁spacious	-14147
▁stitches	-14148
▁courtroom	-14149
▁presently	-14150
▁unleashed	-14151
▁depressing	-14152
▁penetrated	-14153
mi	-14154
cott	-14155
▁zoo	-14156
ernal	-14157
▁poem	-14158
▁boost	-14159
▁carth	-14160
▁categ	-14161
▁dimin	-14162
▁flynn	-14163
▁laird	-14164
▁notor	-14165
▁caelen	-14166
▁grease	-14167
▁humble	-14168
▁kettle	-14169
▁looped	-14170
▁nobles	-14171
▁smoked	-14172
▁topped	-14173
▁uninte	-14174
▁unread	-14175
▁vancha	-14176
▁collins	-14177
▁cruelty	-14178
▁exhilar	-14179
▁nations	-14180
▁outdoor	-14181
▁relieve	-14182
▁armchair	-14183
▁decipher	-14184
▁fingered	-14185
▁inhaling	-14186
▁tripping	-14187
▁watchful	-14188
▁amazingly	-14189
▁distorted	-14190
▁murmuring	-14191
▁persisted	-14192
▁comprehens	-14193
▁evaporated	-14194
▁frustrating	-14195
▁establishment	-14196
dar	-14197
lah	-14198
rem	-14199
inis	-14200
iton	-14201
moil	-14202
▁kah	-14203
arest	-14204
human	-14205
▁impr	-14206
▁pots	-14207
▁rosy	-14208
▁shag	-14209
▁sled	-14210
▁toug	-14211
▁wend	-14212
stones	-14213
▁alejo	-14214
▁crate	-14215
▁denim	-14216
▁goals	-14217
▁hilda	-14218
▁smoky	-14219
▁swipe	-14220
▁ashlyn	-14221
▁brenda	-14222
▁briggs	-14223
▁enters	-14224
▁hazard	-14225
▁hudson	-14226
▁morton	-14227
▁quarry	-14228
munition	-14229
▁glamour	-14230
▁gravely	-14231
▁kendall	-14232
▁phantom	-14233
▁toppled	-14234
▁corporal	-14235
▁forwards	-14236
▁gambling	-14237
▁inadvert	-14238
▁monument	-14239
▁opinions	-14240
▁eliminate	-14241
▁farmhouse	-14242
▁sharpened	-14243
▁complexion	-14244
▁meaningful	-14245
▁dumbfounded	-14246
▁presentation	-14247
god	-14248
whe	-14249
▁dv	-14250
byes	-14251
ilia	-14252
play	-14253
▁cly	-14254
▁hed	-14255
amous	-14256
grand	-14257
quila	-14258
urbed	-14259
▁cosm	-14260
▁rebo	-14261
▁shak	-14262
▁dolls	-14263
▁gerry	-14264
▁koldo	-14265
▁liver	-14266
▁malik	-14267
▁opted	-14268
▁sling	-14269
▁stony	-14270
isation	-14271
issance	-14272
▁alchem	-14273
▁auburn	-14274
▁magnet	-14275
▁marine	-14276
▁sparse	-14277
▁atlanta	-14278
▁brielle	-14279
▁debated	-14280
▁germany	-14281
▁indians	-14282
▁martial	-14283
▁maximus	-14284
▁readily	-14285
▁sorting	-14286
▁summers	-14287
▁tequila	-14288
▁turmoil	-14289
▁banished	-14290
▁enclosed	-14291
▁insulted	-14292
▁strolling	-14293
▁ammunition	-14294
▁potentially	-14295
▁uncertainly	-14296
eri	-14297
ench	-14298
eous	-14299
onso	-14300
rils	-14301
ythe	-14302
▁aed	-14303
▁ost	-14304
ampoo	-14305
verse	-14306
▁ants	-14307
▁bile	-14308
▁coop	-14309
▁joel	-14310
▁meek	-14311
▁capit	-14312
▁deals	-14313
▁flock	-14314
▁ginny	-14315
▁thirt	-14316
▁armour	-14317
▁breach	-14318
▁coolly	-14319
▁periods	-14320
▁shampoo	-14321
▁comrades	-14322
▁glinting	-14323
▁oblivion	-14324
▁skeleton	-14325
▁unstable	-14326
▁elevators	-14327
▁graveyard	-14328
▁overpower	-14329
▁unsettling	-14330
▁vigorously	-14331
▁convenience	-14332
▁rectangular	-14333
ano	-14334
mph	-14335
anth	-14336
atra	-14337
dale	-14338
▁era	-14339
▁entw	-14340
▁juan	-14341
▁yama	-14342
asting	-14343
ceding	-14344
passed	-14345
▁dolph	-14346
▁hitch	-14347
▁katin	-14348
▁madly	-14349
▁poles	-14350
▁runes	-14351
▁sedan	-14352
▁banner	-14353
▁crater	-14354
▁dalton	-14355
▁elaina	-14356
▁inhale	-14357
▁keeley	-14358
▁legacy	-14359
▁panels	-14360
▁reenie	-14361
▁runner	-14362
▁rushes	-14363
▁splint	-14364
▁yelped	-14365
▁bubbled	-14366
▁dipping	-14367
▁eveline	-14368
▁kifirin	-14369
▁kristen	-14370
▁pacific	-14371
▁thicker	-14372
▁vessels	-14373
▁analysis	-14374
▁confines	-14375
▁kingdoms	-14376
▁pursuing	-14377
▁savoring	-14378
▁tendrils	-14379
▁fragments	-14380
▁offensive	-14381
▁stationed	-14382
▁disheveled	-14383
▁involvement	-14384
▁maintaining	-14385
iche	-14386
▁ceo	-14387
▁tum	-14388
▁upt	-14389
found	-14390
rians	-14391
▁nasa	-14392
▁pert	-14393
donald	-14394
▁ample	-14395
▁furry	-14396
▁metic	-14397
▁monot	-14398
▁raged	-14399
▁ralph	-14400
▁stump	-14401
▁traps	-14402
▁valky	-14403
▁azalea	-14404
▁bobbed	-14405
▁factor	-14406
▁marker	-14407
▁mickey	-14408
▁pouted	-14409
▁vanity	-14410
▁actress	-14411
▁booming	-14412
▁colours	-14413
▁mutters	-14414
▁pyramid	-14415
▁ruining	-14416
▁wobbled	-14417
▁campfire	-14418
▁dinosaur	-14419
▁inexplic	-14420
▁mischief	-14421
▁evolution	-14422
▁insistent	-14423
▁physician	-14424
▁purposefully	-14425
ppe	-14426
pres	-14427
▁nig	-14428
acter	-14429
aneze	-14430
▁cack	-14431
▁cres	-14432
▁foam	-14433
▁iced	-14434
▁quad	-14435
▁saus	-14436
▁wate	-14437
bruary	-14438
guards	-14439
rupted	-14440
spring	-14441
worthy	-14442
▁aster	-14443
▁creak	-14444
▁hence	-14445
▁murky	-14446
▁posed	-14447
▁pussy	-14448
▁therm	-14449
▁comfor	-14450
▁deemed	-14451
▁devoid	-14452
▁thrott	-14453
▁update	-14454
▁averted	-14455
▁bobbing	-14456
▁camping	-14457
▁kilomet	-14458
▁nearing	-14459
▁satchel	-14460
▁tatiana	-14461
▁battling	-14462
▁crumbled	-14463
▁stricken	-14464
▁vicinity	-14465
▁agonizing	-14466
▁dizziness	-14467
▁paralyzed	-14468
▁purposely	-14469
▁scratches	-14470
▁typically	-14471
▁haddington	-14472
▁noticeable	-14473
▁appearances	-14474
▁celebrating	-14475
▁recognizing	-14476
▁interruption	-14477
cro	-14478
bury	-14479
mitt	-14480
▁cia	-14481
▁poo	-14482
▁bard	-14483
▁hemp	-14484
▁kiyo	-14485
▁lars	-14486
▁sadi	-14487
▁slut	-14488
▁breth	-14489
▁britt	-14490
▁condu	-14491
▁raped	-14492
▁tiber	-14493
ictions	-14494
unction	-14495
▁dracon	-14496
▁drapes	-14497
▁freaks	-14498
▁roller	-14499
▁squirm	-14500
▁tinted	-14501
▁verbal	-14502
▁compact	-14503
▁nagging	-14504
▁droplets	-14505
▁mustache	-14506
▁protests	-14507
▁skipping	-14508
▁squarely	-14509
▁thundered	-14510
▁monitoring	-14511
▁retirement	-14512
▁scattering	-14513
▁triumphant	-14514
▁inappropriate	-14515
▁transportation	-14516
uv	-14517
lake	-14518
orie	-14519
▁ise	-14520
▁vee	-14521
cting	-14522
▁gail	-14523
▁gogg	-14524
▁pors	-14525
▁soak	-14526
▁spon	-14527
▁thad	-14528
▁wail	-14529
▁aging	-14530
▁blues	-14531
▁brute	-14532
▁clamp	-14533
▁comed	-14534
▁rides	-14535
▁sable	-14536
▁unden	-14537
▁weave	-14538
▁adored	-14539
▁assets	-14540
▁aubrey	-14541
▁barton	-14542
▁domest	-14543
▁gifted	-14544
▁limous	-14545
▁lodged	-14546
▁manual	-14547
▁butcher	-14548
▁clothed	-14549
▁flaring	-14550
▁adjacent	-14551
▁calliope	-14552
▁february	-14553
▁smirking	-14554
▁symptoms	-14555
▁scrunched	-14556
▁switching	-14557
▁thrashing	-14558
▁proclaimed	-14559
▁translated	-14560
hib	-14561
iki	-14562
ilem	-14563
rnin	-14564
tech	-14565
this	-14566
▁bah	-14567
▁mai	-14568
▁zel	-14569
▁aime	-14570
▁cope	-14571
▁joff	-14572
▁kion	-14573
▁dilem	-14574
▁drone	-14575
▁lakes	-14576
▁rearr	-14577
▁unwel	-14578
chester	-14579
▁baking	-14580
▁declar	-14581
▁mixing	-14582
▁samson	-14583
▁solely	-14584
▁trench	-14585
▁alerted	-14586
▁charley	-14587
▁congreg	-14588
▁corrado	-14589
▁marissa	-14590
▁saluted	-14591
▁brunette	-14592
▁cornered	-14593
▁enticing	-14594
▁operator	-14595
▁solitude	-14596
▁complaint	-14597
▁dominated	-14598
▁eagerness	-14599
▁machinery	-14600
▁perceived	-14601
▁recollect	-14602
▁therapist	-14603
▁stepfather	-14604
▁engineering	-14605
▁expectation	-14606
▁inhabitants	-14607
▁irresistible	-14608
icc	-14609
bbly	-14610
ieth	-14611
open	-14612
▁ana	-14613
▁nun	-14614
▁durn	-14615
▁enqu	-14616
▁gulf	-14617
▁otto	-14618
▁shoo	-14619
▁stry	-14620
▁stut	-14621
▁toni	-14622
market	-14623
uition	-14624
▁acres	-14625
▁admon	-14626
▁latin	-14627
▁moore	-14628
▁nicky	-14629
▁ollie	-14630
▁reese	-14631
▁rehab	-14632
▁alcide	-14633
▁chores	-14634
▁formid	-14635
▁gloomy	-14636
▁grimey	-14637
▁laylen	-14638
▁lumber	-14639
▁medall	-14640
▁mumble	-14641
▁organs	-14642
▁pillar	-14643
▁retali	-14644
▁ridden	-14645
▁syring	-14646
▁trials	-14647
▁turtle	-14648
▁catcher	-14649
▁holster	-14650
▁minimal	-14651
▁devoured	-14652
▁fumbling	-14653
▁imposing	-14654
▁lovingly	-14655
▁obscured	-14656
▁slippers	-14657
▁tendency	-14658
▁constable	-14659
▁horseback	-14660
▁reinforce	-14661
▁remembers	-14662
▁associates	-14663
▁predicament	-14664
▁protectively	-14665
▁opportunities	-14666
****	-14667
ksan	-14668
hetti	-14669
psley	-14670
uding	-14671
▁drip	-14672
▁ench	-14673
▁kael	-14674
▁peas	-14675
▁puls	-14676
▁rubs	-14677
dollar	-14678
▁celia	-14679
▁dwind	-14680
▁gauge	-14681
▁indec	-14682
▁prank	-14683
▁scamp	-14684
[...]
